const unsigned char model_data[] __attribute__((aligned(8))) = {0x1c, 0x00, 0x00, 0x00, 0x54, 0x46, 0x4c, 0x33, 0x14, 0x00, 0x20, 0x00, 0x1c, 0x00, 0x18, 0x00, 0x14, 0x00, 0x10, 0x00, 0x0c, 0x00, 0x00, 0x00, 0x08, 0x00, 0x04, 0x00, 0x14, 0x00, 0x00, 0x00, 0x1c, 0x00, 0x00, 0x00, 0x1c, 0x00, 0x00, 0x00, 0x4c, 0x00, 0x00, 0x00, 0x64, 0x14, 0x00, 0x00, 0x74, 0x14, 0x00, 0x00, 0x14, 0x38, 0x00, 0x00, 0x03, 0x00, 0x00, 0x00, 0x00, 0x00, 0x00, 0x00, 0x01, 0x00, 0x00, 0x00, 0x0c, 0x00, 0x00, 0x00, 0x08, 0x00, 0x0c, 0x00, 0x08, 0x00, 0x04, 0x00, 0x08, 0x00, 0x00, 0x00, 0x1c, 0x00, 0x00, 0x00, 0x04, 0x00, 0x00, 0x00, 0x13, 0x00, 0x00, 0x00, 0x6d, 0x69, 0x6e, 0x5f, 0x72, 0x75, 0x6e, 0x74, 0x69, 0x6d, 0x65, 0x5f, 0x76, 0x65, 0x72, 0x73, 0x69, 0x6f, 0x6e, 0x00, 0x1d, 0x00, 0x00, 0x00, 0x14, 0x14, 0x00, 0x00, 0x0c, 0x14, 0x00, 0x00, 0xf4, 0x13, 0x00, 0x00, 0x94, 0x13, 0x00, 0x00, 0x64, 0x13, 0x00, 0x00, 0x5c, 0x13, 0x00, 0x00, 0x0c, 0x11, 0x00, 0x00, 0xdc, 0x10, 0x00, 0x00, 0xd4, 0x10, 0x00, 0x00, 0xcc, 0x10, 0x00, 0x00, 0x7c, 0x0e, 0x00, 0x00, 0x4c, 0x0e, 0x00, 0x00, 0x44, 0x0e, 0x00, 0x00, 0xf4, 0x0b, 0x00, 0x00, 0xc4, 0x0b, 0x00, 0x00, 0xbc, 0x0b, 0x00, 0x00, 0xb4, 0x0b, 0x00, 0x00, 0x64, 0x09, 0x00, 0x00, 0x34, 0x09, 0x00, 0x00, 0x2c, 0x09, 0x00, 0x00, 0xdc, 0x06, 0x00, 0x00, 0xac, 0x06, 0x00, 0x00, 0xa4, 0x06, 0x00, 0x00, 0x9c, 0x06, 0x00, 0x00, 0x94, 0x06, 0x00, 0x00, 0x44, 0x00, 0x00, 0x00, 0x2c, 0x00, 0x00, 0x00, 0x24, 0x00, 0x00, 0x00, 0x04, 0x00, 0x00, 0x00, 0x7e, 0xec, 0xff, 0xff, 0x04, 0x00, 0x00, 0x00, 0x10, 0x00, 0x00, 0x00, 0x31, 0x2e, 0x31, 0x34, 0x2e, 0x30, 0x00, 0x00, 0x00, 0x00, 0x00, 0x00, 0x00, 0x00, 0x00, 0x00, 0xac, 0xc9, 0xff, 0xff, 0x9e, 0xec, 0xff, 0xff, 0x04, 0x00, 0x00, 0x00, 0x08, 0x00, 0x00, 0x00, 0x4f, 0x00, 0x00, 0x00, 0xb1, 0xff, 0xff, 0xff, 0xb2, 0xec, 0xff, 0xff, 0x04, 0x00, 0x00, 0x00, 0x40, 0x06, 0x00, 0x00, 0xad, 0xaf, 0x19, 0x65, 0xae, 0xc2, 0x40, 0x1b, 0x2e, 0x1d, 0xca, 0x63, 0xf9, 0x5a, 0x50, 0x07, 0xd2, 0x00, 0x01, 0xeb, 0xdb, 0xfa, 0xb0, 0x1e, 0x36, 0xdc, 0xaf, 0xc2, 0x51, 0x2d, 0xbd, 0xef, 0xe7, 0x2c, 0xbc, 0x03, 0x67, 0x1a, 0x01, 0x59, 0xd9, 0xdc, 0xc5, 0x2e, 0x2f, 0x3f, 0x0b, 0x03, 0xf2, 0x55, 0xba, 0xc4, 0x3d, 0x37, 0xe3, 0xd6, 0xda, 0xb3, 0xf5, 0x07, 0x17, 0x1e, 0xf3, 0x06, 0x0b, 0x25, 0xdb, 0x10, 0x21, 0x2e, 0x4a, 0xbb, 0x27, 0x38, 0x03, 0x4c, 0xe2, 0x09, 0x07, 0x1a, 0x15, 0x14, 0xe2, 0x4a, 0xeb, 0x39, 0x0d, 0xce, 0x33, 0x26, 0x2b, 0x1a, 0xb1, 0xd8, 0x43, 0xba, 0xdd, 0xe2, 0xe6, 0xd7, 0xe1, 0x1d, 0xd2, 0x23, 0x4c, 0xe5, 0x45, 0x1a, 0x52, 0xc9, 0xba, 0xda, 0x18, 0x52, 0xf2, 0xf7, 0x0c, 0x55, 0x36, 0xef, 0xd8, 0x0d, 0xea, 0xc6, 0xfe, 0xe3, 0xb5, 0x3b, 0xc7, 0x31, 0xc3, 0x54, 0xff, 0x46, 0x0c, 0xfd, 0xef, 0xdf, 0x5a, 0xfd, 0x4e, 0x4e, 0x1c, 0xbc, 0x28, 0x59, 0x47, 0xea, 0xba, 0xec, 0xed, 0xc9, 0x1e, 0xea, 0x29, 0x4e, 0x34, 0x40, 0x60, 0xba, 0x50, 0x24, 0x47, 0xd5, 0xf8, 0x06, 0xb0, 0xf7, 0x04, 0x08, 0x67, 0xc5, 0x0a, 0xff, 0x31, 0xbc, 0xdf, 0xae, 0x4a, 0x14, 0x3e, 0x29, 0x37, 0x1e, 0x9e, 0x36, 0xfb, 0xf3, 0x04, 0x01, 0x49, 0x02, 0x16, 0x0b, 0xc7, 0xa5, 0x36, 0xff, 0xe9, 0xc3, 0xde, 0xd0, 0xd0, 0xd6, 0x52, 0xf6, 0x09, 0x5a, 0x26, 0xc4, 0xd3, 0xc2, 0xfc, 0xf3, 0xca, 0xb5, 0xb2, 0xcb, 0xb5, 0x16, 0x49, 0xe3, 0xf4, 0x32, 0x0f, 0x16, 0xbf, 0x17, 0x45, 0x3b, 0xa2, 0xd1, 0xe0, 0x3e, 0xe2, 0xe1, 0xff, 0x03, 0xc5, 0xc8, 0xdb, 0xd9, 0xf0, 0x44, 0x0d, 0x4e, 0x3a, 0xc3, 0xfe, 0xeb, 0x53, 0x3a, 0xcc, 0xbd, 0xfd, 0xca, 0x21, 0x08, 0xe9, 0xdf, 0x4c, 0xe8, 0x36, 0x26, 0xf7, 0xc6, 0x0a, 0xf0, 0xff, 0x19, 0xbc, 0xcb, 0x1c, 0x06, 0xf0, 0xe3, 0x4f, 0x28, 0xc2, 0xf8, 0x02, 0xcc, 0x62, 0x21, 0x22, 0xc3, 0xf4, 0x13, 0x43, 0x1f, 0x62, 0xb3, 0xee, 0xc9, 0x43, 0xd7, 0xf0, 0x5c, 0x3b, 0xfa, 0x00, 0xf9, 0xda, 0x2b, 0xed, 0x4d, 0x4d, 0xcf, 0x4a, 0xfc, 0x0c, 0x2d, 0x39, 0xdc, 0xe7, 0xbc, 0x2a, 0x53, 0xcb, 0xca, 0x0f, 0x31, 0x5a, 0xec, 0xfe, 0x27, 0x23, 0xe5, 0x43, 0x3d, 0x69, 0x3c, 0x3f, 0xd2, 0x0a, 0x31, 0xf6, 0xbb, 0xe6, 0x2d, 0x02, 0xe5, 0x3f, 0xc0, 0x49, 0xf2, 0xdf, 0x2b, 0xc5, 0x42, 0xba, 0x45, 0x3d, 0x39, 0x0d, 0x0a, 0xf4, 0xc9, 0xdf, 0xbb, 0xc2, 0x28, 0x3a, 0xbb, 0xe4, 0x04, 0x98, 0xa0, 0xfc, 0x47, 0x20, 0x05, 0xb2, 0x03, 0xae, 0x07, 0x42, 0xd3, 0xef, 0xd7, 0x33, 0xcd, 0xef, 0xb7, 0x4f, 0xfb, 0xd2, 0xee, 0xb5, 0xcb, 0x24, 0xe9, 0xbf, 0xa4, 0x3d, 0xd6, 0x06, 0x3e, 0x3a, 0x30, 0xfc, 0x3e, 0xd3, 0x0b, 0x0c, 0x48, 0xb5, 0x33, 0x19, 0x36, 0xcd, 0x24, 0xe9, 0xf5, 0x1a, 0x13, 0xf1, 0xae, 0xe8, 0xf0, 0x3e, 0x29, 0xda, 0x1a, 0xfc, 0x66, 0xf5, 0x32, 0x19, 0x04, 0xd9, 0xe9, 0xdf, 0x06, 0xb8, 0xaf, 0x50, 0x53, 0x40, 0x22, 0x52, 0x8d, 0xb7, 0xc1, 0x47, 0xe5, 0xe3, 0xc1, 0x2e, 0xe5, 0x1f, 0xb0, 0xf6, 0x03, 0x47, 0xad, 0x0a, 0xf7, 0xd0, 0x5c, 0xc6, 0x42, 0xde, 0x29, 0x2e, 0x44, 0xe6, 0x52, 0xc0, 0x39, 0xd0, 0xdb, 0xd8, 0x0d, 0x2d, 0xbb, 0x5e, 0x4b, 0xa0, 0xc5, 0xb0, 0x03, 0x1d, 0x17, 0xd7, 0x5a, 0xc1, 0xe3, 0xb7, 0x25, 0xdb, 0x22, 0xd2, 0x09, 0x26, 0xde, 0x27, 0xad, 0xc9, 0x20, 0xbb, 0xb7, 0xec, 0xb8, 0xde, 0x3f, 0x14, 0x72, 0x0f, 0xef, 0x58, 0xe2, 0x47, 0x55, 0x4f, 0x22, 0x07, 0xf5, 0x35, 0xf3, 0xb1, 0x0b, 0x01, 0x07, 0x18, 0x06, 0xb5, 0x30, 0x64, 0x59, 0x60, 0x17, 0x14, 0xf1, 0xcd, 0xf7, 0xe6, 0xe8, 0x14, 0xe6, 0x56, 0xbb, 0x21, 0xaf, 0x44, 0x06, 0xdc, 0xda, 0xdd, 0x37, 0x50, 0x23, 0xdd, 0x43, 0x11, 0x3c, 0x1f, 0x42, 0xcf, 0x21, 0xdd, 0xba, 0x14, 0xd3, 0xd5, 0xde, 0xf1, 0xbe, 0x0c, 0x47, 0xb4, 0xf9, 0x21, 0x02, 0x36, 0x32, 0x01, 0x55, 0xf8, 0x0e, 0x47, 0xef, 0xf3, 0xe7, 0x4c, 0xb3, 0x37, 0x24, 0x10, 0x17, 0xbd, 0xc2, 0xd2, 0x3d, 0xfa, 0x33, 0xf7, 0x54, 0x3c, 0x07, 0x2a, 0x17, 0x13, 0x0c, 0xf9, 0xf6, 0x02, 0x1b, 0xc3, 0xdb, 0x1c, 0x03, 0xcc, 0xf9, 0xa2, 0xe9, 0x15, 0xbf, 0xd8, 0x6c, 0xe2, 0x35, 0xd6, 0xb1, 0x28, 0x01, 0xd8, 0x34, 0xd4, 0xc3, 0xfe, 0xe5, 0xb6, 0xff, 0xba, 0xcc, 0xb7, 0x1c, 0x36, 0x3f, 0xfd, 0x22, 0x18, 0x27, 0x06, 0x08, 0x50, 0xf9, 0x54, 0x2a, 0xe9, 0x11, 0xd4, 0x3c, 0x50, 0x40, 0x02, 0xc3, 0x47, 0xd6, 0x0c, 0xdd, 0x01, 0xff, 0x2a, 0xbb, 0xcb, 0xea, 0xf7, 0x3d, 0xb1, 0xb5, 0xb8, 0xe2, 0xee, 0xd7, 0x0d, 0x17, 0x23, 0xb8, 0x71, 0x1a, 0xa2, 0xff, 0x05, 0xfb, 0x34, 0xb9, 0xba, 0xc9, 0xe7, 0x0f, 0x39, 0x10, 0x1a, 0x45, 0x46, 0x4c, 0x63, 0x58, 0xf4, 0xe9, 0x9f, 0x59, 0x3d, 0x1c, 0x18, 0x13, 0xd9, 0x66, 0x2c, 0xd7, 0xfc, 0x07, 0xe9, 0x35, 0x45, 0x10, 0xe4, 0xe1, 0x11, 0xbb, 0xe0, 0x26, 0x0b, 0xe9, 0x37, 0x12, 0xb3, 0x2a, 0x45, 0x47, 0xec, 0x3c, 0x34, 0xf0, 0x69, 0xda, 0x1e, 0x48, 0xb1, 0x4c, 0x46, 0x41, 0x03, 0xda, 0x0e, 0x38, 0x34, 0x0a, 0x39, 0xca, 0x39, 0x2e, 0x67, 0x50, 0x40, 0xc0, 0xc8, 0xc7, 0xb8, 0x3d, 0xc1, 0x1b, 0x31, 0x18, 0x0f, 0x2a, 0xd4, 0x2c, 0x2f, 0xc4, 0xbe, 0x44, 0x41, 0x1d, 0x4e, 0x45, 0x3f, 0x1f, 0xb3, 0x0b, 0xd7, 0x45, 0x0b, 0xda, 0x21, 0x63, 0x04, 0x2c, 0x44, 0xb0, 0xc8, 0xfb, 0x25, 0x2e, 0x28, 0xe0, 0x08, 0xec, 0xc9, 0x10, 0x43, 0x42, 0xd5, 0xaa, 0xc4, 0xf1, 0x22, 0x0c, 0x04, 0x40, 0xf3, 0xd1, 0xae, 0xbc, 0xad, 0xbf, 0x9e, 0xc3, 0x43, 0x42, 0xf2, 0x2c, 0xc4, 0x4d, 0xf5, 0x35, 0xac, 0xe9, 0x28, 0x26, 0xc1, 0x43, 0x26, 0xd1, 0xd5, 0xc9, 0xa5, 0x95, 0x13, 0xe6, 0xba, 0xe2, 0xc3, 0x0a, 0xcb, 0x13, 0xd0, 0xc6, 0x11, 0xf5, 0xc5, 0xaf, 0x07, 0xf8, 0xb5, 0x2c, 0x2d, 0xfa, 0xd2, 0x08, 0x15, 0x4c, 0x9f, 0xe1, 0x39, 0x37, 0x16, 0xe0, 0x03, 0x0d, 0xbf, 0x47, 0xf4, 0x01, 0xa6, 0xfe, 0xf0, 0xd4, 0x3e, 0xbb, 0x29, 0xc5, 0xe1, 0xfc, 0x18, 0x36, 0x11, 0x4f, 0x16, 0xfa, 0x54, 0x30, 0x27, 0xb7, 0x05, 0x2a, 0xac, 0x16, 0x34, 0x29, 0xe3, 0xd5, 0x59, 0xec, 0xb2, 0xc7, 0xca, 0xcb, 0x20, 0xe6, 0xad, 0xcd, 0xed, 0xcf, 0xbe, 0xf0, 0x37, 0xa2, 0xf8, 0xe7, 0x10, 0x3b, 0xbe, 0xdd, 0x27, 0xe5, 0xfa, 0xc9, 0xed, 0xeb, 0x36, 0x1a, 0xf5, 0x19, 0xfc, 0x18, 0x1e, 0xd0, 0x28, 0x0d, 0x1d, 0x36, 0x43, 0xfb, 0xb7, 0xc0, 0xbc, 0x31, 0x30, 0xf5, 0x3c, 0x01, 0xbc, 0xce, 0xc6, 0x46, 0xe3, 0x24, 0x18, 0xc0, 0x2d, 0xf7, 0x3f, 0xe1, 0x17, 0xb3, 0xea, 0x26, 0xf2, 0xb5, 0x4d, 0x16, 0x10, 0x4d, 0x34, 0x08, 0xd9, 0x31, 0xf0, 0x39, 0x16, 0xc6, 0x0b, 0xd9, 0x47, 0xc0, 0x35, 0x40, 0x3a, 0x07, 0xee, 0x4a, 0xfd, 0xc8, 0x03, 0x47, 0xf9, 0x1e, 0x0f, 0xee, 0x35, 0x29, 0xef, 0xb4, 0xd9, 0xde, 0xe5, 0xcf, 0x27, 0x51, 0xb2, 0x3e, 0xaf, 0xe4, 0xfd, 0x1e, 0x0d, 0xe0, 0xb9, 0xb9, 0x3d, 0x43, 0x3b, 0x34, 0x0b, 0x41, 0xd4, 0xfd, 0xcf, 0x44, 0xdc, 0x33, 0x54, 0x42, 0x4a, 0x1c, 0xef, 0x43, 0xfe, 0xec, 0x56, 0xb9, 0xdb, 0x25, 0x39, 0xd4, 0xe4, 0xf7, 0xa3, 0x29, 0x0c, 0xd9, 0xf4, 0xbf, 0x35, 0x4d, 0x5b, 0x47, 0x4b, 0x3a, 0x0f, 0xa0, 0xa8, 0x3b, 0x02, 0xcd, 0xcb, 0x0e, 0xb9, 0xa7, 0x3b, 0xd5, 0xcc, 0x45, 0x28, 0x1d, 0x3b, 0xa3, 0xc8, 0x6f, 0x95, 0x4a, 0x43, 0xc6, 0x30, 0x3f, 0x00, 0x36, 0x22, 0x39, 0x45, 0xfe, 0x04, 0x09, 0x9f, 0x1e, 0x3a, 0x1e, 0x13, 0x50, 0xec, 0xbc, 0x9c, 0xf4, 0x17, 0xfd, 0xfc, 0x2b, 0xd0, 0x1e, 0x19, 0xca, 0x07, 0x06, 0x01, 0xc6, 0xe9, 0xf3, 0x4d, 0x3d, 0xd5, 0xc2, 0xb4, 0xa5, 0x0e, 0xf9, 0xe8, 0x3e, 0xee, 0x0e, 0x1a, 0x3b, 0xe6, 0xbb, 0x0a, 0xd1, 0x4f, 0xf1, 0xdd, 0x4e, 0x32, 0xa9, 0xcf, 0x49, 0x2b, 0xdd, 0x23, 0x0b, 0x53, 0xe3, 0xd1, 0x56, 0xe0, 0xeb, 0x12, 0x2f, 0xed, 0xf8, 0x4c, 0x24, 0xa3, 0x4c, 0xe7, 0x4e, 0xfd, 0xcb, 0x01, 0xff, 0x31, 0x14, 0x5c, 0x17, 0xe3, 0x18, 0xf4, 0xcb, 0xd8, 0xe8, 0x22, 0xae, 0xd8, 0x18, 0x32, 0xf6, 0xfe, 0xf8, 0xbd, 0xb3, 0x3e, 0x13, 0x18, 0xcf, 0x96, 0x0f, 0x4a, 0x44, 0x2b, 0xf5, 0x39, 0x35, 0x2d, 0xdb, 0x14, 0x9d, 0x10, 0x48, 0x19, 0x03, 0xf8, 0xf7, 0x4d, 0xe3, 0x3c, 0x0e, 0xc0, 0x3d, 0xf2, 0xc9, 0xa2, 0x4d, 0xfb, 0x00, 0x3a, 0xb2, 0xb3, 0x21, 0xac, 0xd2, 0x4f, 0x12, 0xe6, 0xdb, 0x2f, 0x10, 0x52, 0xf8, 0xad, 0xfd, 0x45, 0x44, 0x6d, 0x43, 0xd2, 0x34, 0x0c, 0xdc, 0xee, 0xc6, 0x17, 0xe8, 0xe3, 0xdc, 0xc2, 0x20, 0xb9, 0x29, 0x1f, 0x9b, 0x3f, 0xb6, 0xf0, 0xb6, 0xa5, 0x40, 0xb3, 0xf0, 0xf6, 0xa1, 0xde, 0x49, 0xc2, 0x0c, 0xfd, 0x2f, 0x03, 0xbd, 0x1a, 0x0c, 0xf3, 0xcd, 0xe5, 0xaf, 0x15, 0x15, 0xbd, 0x0c, 0x05, 0x9f, 0xc7, 0x1a, 0xbb, 0x26, 0x33, 0xd4, 0xc8, 0x17, 0x10, 0xf8, 0xd0, 0x37, 0xa9, 0xe7, 0xe4, 0xc6, 0x0b, 0xd4, 0xde, 0xbb, 0xa5, 0xda, 0x18, 0x2a, 0x81, 0x48, 0xeb, 0x9c, 0xc3, 0xa6, 0x4b, 0xbb, 0x28, 0xd9, 0xe7, 0xed, 0xb2, 0xf6, 0x21, 0x16, 0x9b, 0xe3, 0xc9, 0x11, 0xf7, 0xe1, 0xbd, 0x05, 0x16, 0xe0, 0x25, 0x07, 0x43, 0xe1, 0xae, 0xe9, 0xf8, 0x4e, 0xb9, 0x0d, 0xb6, 0x24, 0x02, 0xf8, 0xc1, 0xe7, 0xd5, 0x35, 0xde, 0xf6, 0xac, 0xae, 0x21, 0x30, 0x08, 0x29, 0x35, 0xbb, 0xb1, 0x01, 0x13, 0x1e, 0x20, 0xba, 0xba, 0x38, 0x3d, 0xbf, 0xd8, 0x33, 0xa7, 0x19, 0xfb, 0xbd, 0xd3, 0xbe, 0x98, 0xaf, 0xc4, 0x13, 0x2a, 0x19, 0x21, 0x4a, 0xbb, 0xac, 0xb4, 0x17, 0x2a, 0xaf, 0x1f, 0x40, 0x44, 0x0a, 0xed, 0x0d, 0x2e, 0xcb, 0xc9, 0xc0, 0x1a, 0x44, 0x34, 0xa1, 0x3a, 0xe6, 0x05, 0x12, 0xef, 0xf6, 0xd7, 0xeb, 0x2d, 0x33, 0xcb, 0x01, 0xec, 0x48, 0xfc, 0xb3, 0xca, 0xfb, 0xdd, 0x34, 0xcb, 0xba, 0x4b, 0x0c, 0x53, 0x0c, 0x3d, 0xc7, 0x1b, 0xa7, 0x4d, 0xa5, 0x17, 0xa9, 0xaf, 0xd2, 0x0f, 0x2d, 0xc1, 0xa4, 0x91, 0xb2, 0x2c, 0x13, 0xa6, 0xa0, 0xcd, 0x0a, 0x4d, 0xc6, 0xe2, 0x08, 0xba, 0x11, 0x1c, 0xcf, 0xde, 0x3e, 0xb2, 0x3d, 0xe1, 0x15, 0xbc, 0x34, 0xfd, 0xda, 0x13, 0xd7, 0x5e, 0xb9, 0x25, 0x3e, 0xde, 0x22, 0x05, 0x1f, 0x27, 0x37, 0xfe, 0xde, 0xea, 0x31, 0x4c, 0xd3, 0x1b, 0xd9, 0xeb, 0xaa, 0xdc, 0xd5, 0x06, 0x04, 0x20, 0x4c, 0x2c, 0xff, 0x2a, 0xa0, 0xae, 0xfb, 0x1e, 0x1f, 0x1a, 0xf7, 0x21, 0x37, 0x3b, 0x23, 0xc2, 0xf2, 0x33, 0x18, 0x4b, 0x2d, 0x1f, 0xce, 0xd0, 0xad, 0x20, 0x44, 0xdc, 0x08, 0xb6, 0xd4, 0xdd, 0x42, 0xf6, 0x27, 0xbe, 0xca, 0x00, 0x35, 0x98, 0x39, 0xe4, 0xde, 0x20, 0x08, 0x54, 0x01, 0x9e, 0x02, 0xbd, 0xeb, 0x44, 0xb7, 0xa7, 0x0b, 0xb2, 0x3a, 0xbd, 0x21, 0xb1, 0x2a, 0xf2, 0xec, 0x1b, 0xd9, 0x0b, 0x07, 0x25, 0x20, 0x35, 0xbb, 0xe3, 0xf7, 0xc8, 0xd2, 0xff, 0xec, 0x06, 0xea, 0x2a, 0xb3, 0x3d, 0x10, 0x26, 0xf3, 0x04, 0xa1, 0x18, 0xe2, 0x06, 0x28, 0xc1, 0x46, 0x10, 0xd0, 0xff, 0xff, 0x14, 0xd0, 0xff, 0xff, 0x18, 0xd0, 0xff, 0xff, 0x0a, 0xf3, 0xff, 0xff, 0x04, 0x00, 0x00, 0x00, 0x20, 0x00, 0x00, 0x00, 0x6b, 0xff, 0xff, 0xff, 0x41, 0x00, 0x00, 0x00, 0x8d, 0x00, 0x00, 0x00, 0x04, 0x00, 0x00, 0x00, 0x09, 0xff, 0xff, 0xff, 0xd9, 0xff, 0xff, 0xff, 0x4f, 0x00, 0x00, 0x00, 0xfb, 0xfe, 0xff, 0xff, 0x36, 0xf3, 0xff, 0xff, 0x04, 0x00, 0x00, 0x00, 0x40, 0x02, 0x00, 0x00, 0x20, 0xce, 0x93, 0x42, 0x4c, 0x81, 0xd5, 0x66, 0x55, 0x2c, 0xb6, 0xb1, 0xe8, 0x57, 0x0c, 0xea, 0x24, 0x68, 0xfe, 0x9e, 0xb7, 0x6c, 0xb4, 0x97, 0x13, 0x31, 0x12, 0xfb, 0x67, 0xd4, 0xc6, 0xf4, 0xbf, 0x01, 0xad, 0x52, 0xcd, 0x30, 0x02, 0x37, 0x96, 0x2a, 0xed, 0x1d, 0xf6, 0x2a, 0x3f, 0x2d, 0xaf, 0xca, 0xb3, 0x68, 0xdc, 0x9f, 0xd7, 0xdf, 0x3f, 0xea, 0x40, 0x65, 0x49, 0x49, 0x02, 0x9a, 0xf7, 0xbf, 0xf1, 0xb1, 0x44, 0x47, 0x0a, 0xe1, 0x7f, 0x29, 0x99, 0x18, 0xd2, 0xcd, 0x58, 0xa2, 0xf8, 0x2e, 0x3c, 0xa3, 0x39, 0x2b, 0x75, 0xd6, 0x9e, 0xbb, 0xc8, 0x4d, 0x91, 0xe7, 0x33, 0xcd, 0x74, 0x43, 0x2e, 0x28, 0xdd, 0x83, 0x9e, 0xa7, 0xaa, 0xde, 0xd3, 0xb1, 0x53, 0x1c, 0x22, 0x2d, 0x4a, 0xa3, 0xac, 0x4d, 0x67, 0x31, 0xa1, 0xac, 0x29, 0x70, 0xb8, 0xd1, 0x6b, 0x1a, 0x61, 0xb0, 0xfb, 0xfd, 0x8e, 0x0d, 0xeb, 0xf3, 0xc5, 0x76, 0x60, 0x15, 0x04, 0x0a, 0x0c, 0x22, 0xd5, 0x26, 0xa5, 0x70, 0x21, 0xbc, 0x29, 0xc1, 0x05, 0x02, 0xf1, 0x3b, 0x42, 0x39, 0xc4, 0x27, 0x1d, 0x92, 0x93, 0x7f, 0x7e, 0x56, 0x74, 0xa0, 0xad, 0x29, 0xec, 0xf4, 0xc9, 0xe8, 0x69, 0x96, 0xd5, 0x3f, 0x93, 0x4d, 0xeb, 0x78, 0xe5, 0xe4, 0x5c, 0x3c, 0xc3, 0x1d, 0x5a, 0x0f, 0x02, 0xc7, 0xf8, 0xff, 0x60, 0xa0, 0xe9, 0xa5, 0x0b, 0xc9, 0xb0, 0xc0, 0x0e, 0xce, 0x38, 0x5f, 0xf1, 0xba, 0x43, 0xde, 0xea, 0xa9, 0xbf, 0xc6, 0x90, 0x2d, 0x9f, 0xbe, 0x4a, 0x22, 0xa0, 0xa8, 0xc5, 0x32, 0x2c, 0xd1, 0x25, 0x14, 0x93, 0xbc, 0xec, 0x76, 0x4f, 0x56, 0x64, 0x76, 0x1e, 0x49, 0xd6, 0xaf, 0xc1, 0x96, 0x4e, 0x83, 0xd9, 0x8e, 0x65, 0x58, 0x71, 0x0f, 0x57, 0x30, 0x6f, 0x81, 0xb1, 0x01, 0xcf, 0x22, 0xa6, 0x23, 0x2f, 0xf5, 0x64, 0xbc, 0x5b, 0xc3, 0xb2, 0x0f, 0x1e, 0x2e, 0xe0, 0xff, 0x87, 0x6a, 0x97, 0x79, 0x2e, 0x42, 0x07, 0xee, 0x8d, 0x16, 0x9a, 0xa4, 0xcb, 0x38, 0x3b, 0xcb, 0x03, 0x83, 0x32, 0x3f, 0x3e, 0x19, 0xc3, 0x3e, 0x4a, 0xcb, 0x59, 0xe7, 0xeb, 0x14, 0x81, 0xb9, 0x65, 0x66, 0x23, 0x9c, 0x2c, 0x15, 0xa7, 0xe5, 0x66, 0xc0, 0x6b, 0xa7, 0x5d, 0xe2, 0x5b, 0x45, 0xe2, 0xe7, 0x12, 0xe8, 0xfd, 0x4d, 0x63, 0x0a, 0xc9, 0xa8, 0xbd, 0x9f, 0x85, 0xd2, 0xdb, 0x0c, 0x5e, 0x2e, 0xc6, 0xe0, 0x26, 0x07, 0x50, 0xc0, 0x6f, 0x35, 0xf5, 0xda, 0xf1, 0xb4, 0xc1, 0x5d, 0xba, 0x5c, 0xa7, 0x33, 0x41, 0xef, 0x44, 0xe6, 0x52, 0xca, 0x74, 0x9d, 0xb9, 0x21, 0xe2, 0xa3, 0xe5, 0x83, 0x75, 0x64, 0xc0, 0x46, 0xe9, 0x5a, 0x16, 0x13, 0xff, 0x3b, 0x7c, 0x4a, 0x4c, 0x60, 0xe9, 0xfb, 0x19, 0x06, 0x0d, 0x76, 0xf9, 0xa4, 0x3d, 0x93, 0x59, 0x68, 0x43, 0x47, 0x0e, 0x03, 0x53, 0x4e, 0xd9, 0x68, 0xa4, 0x4b, 0xa7, 0x4f, 0xbe, 0xe4, 0x17, 0xa3, 0x6f, 0xcb, 0x65, 0x7f, 0xec, 0x66, 0x4b, 0x98, 0xe7, 0xc4, 0x40, 0xa1, 0xa2, 0xe9, 0xaf, 0x7c, 0x36, 0x9a, 0xa5, 0xbf, 0x32, 0xe0, 0x99, 0x66, 0x45, 0x3e, 0x1c, 0x49, 0xba, 0x3b, 0x68, 0x64, 0x26, 0xb5, 0xa9, 0x2e, 0x93, 0x5a, 0x33, 0x7e, 0x3a, 0x70, 0x88, 0xa8, 0xc3, 0xa1, 0x53, 0xc6, 0xa1, 0x46, 0xb6, 0x31, 0x52, 0xbb, 0x7d, 0xa7, 0x9d, 0x72, 0x2f, 0x05, 0x56, 0x7f, 0x21, 0x6c, 0x23, 0x95, 0x6c, 0x79, 0x01, 0xfc, 0x2a, 0xaf, 0x1e, 0x98, 0xaa, 0x99, 0xce, 0xcc, 0x90, 0x73, 0xe9, 0x78, 0xf6, 0x00, 0x58, 0x11, 0x41, 0xd9, 0xf6, 0xa9, 0x0f, 0x2e, 0xbd, 0x08, 0x63, 0xc0, 0x01, 0xe0, 0x22, 0xd0, 0xe0, 0x1f, 0x69, 0x5e, 0xc9, 0x4f, 0xae, 0x74, 0xe3, 0xf9, 0x38, 0x6b, 0x0d, 0x53, 0x56, 0x00, 0x30, 0xeb, 0xc8, 0x4b, 0xf6, 0x20, 0xc1, 0x5a, 0x5c, 0x34, 0x26, 0x58, 0x2a, 0x52, 0x2b, 0x1b, 0x3b, 0x54, 0x50, 0x94, 0x14, 0x8a, 0x3b, 0xd5, 0xe3, 0xda, 0xc0, 0x54, 0xab, 0x9c, 0xa2, 0x9a, 0x96, 0xef, 0x81, 0x00, 0xcb, 0xaa, 0xee, 0xe1, 0xd4, 0x3e, 0xed, 0x78, 0x62, 0x47, 0xaa, 0x5e, 0x0e, 0x5a, 0x94, 0xd2, 0xff, 0xff, 0x86, 0xf5, 0xff, 0xff, 0x04, 0x00, 0x00, 0x00, 0x20, 0x00, 0x00, 0x00, 0x87, 0xff, 0xff, 0xff, 0x13, 0x00, 0x00, 0x00, 0xeb, 0xff, 0xff, 0xff, 0xec, 0xff, 0xff, 0xff, 0x9e, 0xff, 0xff, 0xff, 0x7f, 0x00, 0x00, 0x00, 0x9e, 0xff, 0xff, 0xff, 0x00, 0x00, 0x00, 0x00, 0xb2, 0xf5, 0xff, 0xff, 0x04, 0x00, 0x00, 0x00, 0x40, 0x02, 0x00, 0x00, 0xa1, 0xde, 0xb5, 0x5c, 0xf1, 0x04, 0xae, 0x4b, 0xfa, 0x1c, 0x47, 0xa4, 0x97, 0x97, 0x38, 0x0f, 0xd8, 0x47, 0xa7, 0x2d, 0xe6, 0x59, 0x2e, 0xad, 0x51, 0x31, 0xe1, 0x6c, 0xa6, 0x2a, 0x38, 0xf5, 0x76, 0xc2, 0x95, 0xd9, 0xac, 0x3a, 0xd1, 0xc1, 0x4a, 0xd4, 0x2b, 0xab, 0x28, 0x2c, 0x1c, 0xaf, 0xa4, 0x25, 0x57, 0xcb, 0x5c, 0x49, 0x53, 0x14, 0x68, 0xbf, 0x5a, 0x91, 0x41, 0xb1, 0x14, 0x3e, 0x7f, 0xec, 0x50, 0xa4, 0xe8, 0x22, 0xe0, 0xfe, 0xbd, 0x5c, 0xe5, 0x98, 0x92, 0x3d, 0x1d, 0x47, 0xbe, 0x54, 0x4d, 0x4b, 0x6a, 0x2f, 0xe2, 0xb5, 0xcb, 0x72, 0x35, 0xff, 0x24, 0x96, 0x96, 0xfc, 0x56, 0x5f, 0xf7, 0x3a, 0x71, 0xcc, 0xcd, 0xde, 0xa6, 0x59, 0x41, 0x88, 0xa0, 0x5c, 0x20, 0xcc, 0x13, 0xa5, 0x62, 0xa2, 0xc1, 0x9d, 0xfb, 0xaf, 0x7f, 0x21, 0xfc, 0x96, 0xf2, 0x26, 0xa1, 0x5e, 0x5c, 0xd2, 0x3d, 0x65, 0xf1, 0xd2, 0xed, 0xe0, 0xa0, 0x54, 0xd9, 0x07, 0x95, 0xb2, 0x5e, 0x6d, 0x6a, 0x32, 0xb8, 0x27, 0xaf, 0x4e, 0x61, 0xe2, 0x48, 0x25, 0xb3, 0x4d, 0xf1, 0xc8, 0xab, 0xc3, 0xfd, 0xe4, 0xcc, 0x18, 0x46, 0x64, 0xe7, 0x01, 0x0e, 0x2d, 0x12, 0xbc, 0x7f, 0xff, 0xfd, 0xb4, 0x94, 0x58, 0x73, 0xc7, 0x90, 0x7b, 0x92, 0xa5, 0x8d, 0xd8, 0x8b, 0xfc, 0x79, 0x3c, 0x93, 0x58, 0xdf, 0x31, 0x73, 0x02, 0x36, 0x8e, 0x64, 0x70, 0x05, 0xb0, 0x10, 0x21, 0xb0, 0xee, 0xa2, 0x76, 0x2d, 0xcf, 0x52, 0xfb, 0x95, 0x37, 0xb5, 0x94, 0x9a, 0xe0, 0xc2, 0xcd, 0x25, 0xa6, 0xe7, 0xe9, 0xf7, 0x31, 0xe4, 0x34, 0x67, 0x59, 0x8f, 0x31, 0xe9, 0xa2, 0xc5, 0x3a, 0x9a, 0x1a, 0xec, 0x8f, 0xce, 0x00, 0x8d, 0x62, 0xfa, 0xee, 0x96, 0xad, 0xd0, 0x7f, 0xa1, 0xde, 0x03, 0x24, 0x92, 0x0f, 0xa4, 0xe5, 0xc5, 0x23, 0x52, 0x3b, 0x16, 0x29, 0x53, 0x8f, 0x2c, 0xcc, 0x6d, 0xde, 0xfa, 0x9b, 0x27, 0x2c, 0xda, 0x5c, 0x05, 0xf2, 0x0d, 0x2a, 0x45, 0x1d, 0x6e, 0x8d, 0x15, 0x6b, 0xc2, 0x26, 0x2e, 0xe3, 0x01, 0xc0, 0x1d, 0x30, 0xa4, 0x68, 0x3b, 0xb0, 0xe7, 0x8b, 0x02, 0xf1, 0xca, 0x4a, 0xbc, 0x6b, 0x01, 0x7f, 0x2e, 0xfa, 0x2c, 0x3e, 0x50, 0x2e, 0x57, 0xbb, 0x3a, 0xa1, 0x00, 0x58, 0xab, 0x4c, 0x4d, 0xf5, 0x04, 0x76, 0x96, 0x59, 0x5f, 0xf7, 0x16, 0xf9, 0x45, 0xf7, 0xaa, 0x27, 0x33, 0x0e, 0x4c, 0xc6, 0xd1, 0x81, 0x63, 0xe6, 0x29, 0x53, 0xfd, 0x3e, 0xc7, 0x8f, 0x16, 0x26, 0xa8, 0x19, 0x0a, 0x42, 0xc1, 0x6c, 0xc6, 0xe7, 0x05, 0xd0, 0x4e, 0x2b, 0xe4, 0xe6, 0x07, 0xea, 0xfb, 0xa0, 0x48, 0xbd, 0xde, 0x16, 0x18, 0xa8, 0x66, 0xc2, 0x4a, 0x33, 0xa5, 0x7f, 0xee, 0xb4, 0x33, 0x69, 0x0f, 0xd6, 0x61, 0x0f, 0x4a, 0x21, 0x59, 0xb1, 0xa3, 0x8c, 0x5a, 0x02, 0x1a, 0x72, 0xb1, 0x9e, 0x48, 0x79, 0xd2, 0xeb, 0x19, 0xdd, 0x58, 0x4d, 0x07, 0x07, 0x19, 0xc4, 0x66, 0x3a, 0x22, 0x0c, 0xa4, 0x22, 0xad, 0xc0, 0xf4, 0x7c, 0x4b, 0x99, 0x4a, 0x0e, 0xf5, 0xab, 0xf9, 0x0b, 0xb6, 0x92, 0xcf, 0x4d, 0xc1, 0x8c, 0xa5, 0x28, 0x9f, 0x17, 0xce, 0x15, 0x69, 0xa8, 0xe1, 0x81, 0x26, 0x5a, 0xc9, 0x2a, 0xa7, 0x99, 0xbf, 0x3d, 0x1c, 0x0c, 0x8b, 0x37, 0x54, 0x8c, 0xb7, 0xf5, 0x72, 0xd4, 0x8d, 0x97, 0xc3, 0xf3, 0xd9, 0x6b, 0xca, 0xbd, 0x9c, 0xec, 0xa9, 0x3b, 0x8a, 0x08, 0x53, 0x74, 0xbc, 0xa3, 0x92, 0xc8, 0x23, 0x43, 0xc1, 0x27, 0x85, 0x9d, 0x3f, 0x5c, 0x2b, 0x23, 0x39, 0xfa, 0xdc, 0x3f, 0x8a, 0x87, 0x93, 0x45, 0xfa, 0x4c, 0x44, 0xe6, 0x98, 0x43, 0xaa, 0x60, 0x79, 0x25, 0x35, 0x0c, 0x94, 0x72, 0x19, 0x32, 0xbc, 0x87, 0x6c, 0x55, 0x4e, 0xce, 0x18, 0xa0, 0xd3, 0x20, 0x5a, 0xcb, 0x65, 0x31, 0x53, 0xf9, 0xa4, 0xc9, 0xdc, 0x3a, 0xb2, 0x48, 0x37, 0x28, 0xa9, 0x14, 0x48, 0xdb, 0x94, 0x1d, 0xcb, 0x8d, 0x1b, 0x23, 0x99, 0x20, 0x83, 0x2b, 0x9c, 0x47, 0x7f, 0x28, 0x2b, 0xc6, 0x09, 0x55, 0x1a, 0x03, 0x34, 0x01, 0x21, 0xa9, 0x8e, 0xad, 0x03, 0x3b, 0x10, 0xd5, 0xff, 0xff, 0x14, 0xd5, 0xff, 0xff, 0x06, 0xf8, 0xff, 0xff, 0x04, 0x00, 0x00, 0x00, 0x20, 0x00, 0x00, 0x00, 0x4a, 0x00, 0x00, 0x00, 0x4a, 0x00, 0x00, 0x00, 0x10, 0x00, 0x00, 0x00, 0x57, 0x00, 0x00, 0x00, 0x00, 0x00, 0x00, 0x00, 0xc6, 0xff, 0xff, 0xff, 0x50, 0xff, 0xff, 0xff, 0x8f, 0xff, 0xff, 0xff, 0x32, 0xf8, 0xff, 0xff, 0x04, 0x00, 0x00, 0x00, 0x40, 0x02, 0x00, 0x00, 0x94, 0x0a, 0xc8, 0x34, 0x7a, 0x08, 0x2e, 0x9f, 0xab, 0xd4, 0xb2, 0x23, 0x2b, 0xde, 0x69, 0x2f, 0x08, 0x96, 0xf8, 0x2b, 0x56, 0xb3, 0xad, 0xde, 0x3c, 0x8d, 0xc6, 0x42, 0x25, 0xca, 0xd0, 0x0e, 0x4a, 0xca, 0xf4, 0xc0, 0x39, 0xb1, 0x0b, 0x7e, 0x54, 0x0f, 0x93, 0xa5, 0x10, 0x32, 0xfe, 0xa1, 0xf5, 0xed, 0x23, 0x79, 0x0c, 0x99, 0x10, 0x6a, 0x1c, 0xaf, 0xa6, 0x7f, 0x38, 0x55, 0xe5, 0x24, 0x09, 0x34, 0x06, 0xcd, 0x9d, 0x33, 0x55, 0xb6, 0x17, 0x3b, 0xad, 0xe9, 0x9d, 0xee, 0x0f, 0x44, 0x39, 0x30, 0xc3, 0xc6, 0x6b, 0x57, 0xf5, 0xa7, 0x4d, 0x0f, 0x0f, 0x73, 0x07, 0xaf, 0x1c, 0xac, 0xdb, 0x12, 0xaa, 0x43, 0x4a, 0xa8, 0xe4, 0xc3, 0x0f, 0x01, 0x57, 0xa4, 0xed, 0x0e, 0x1f, 0xcc, 0xc2, 0xa8, 0x9b, 0x5d, 0x2d, 0x10, 0x25, 0x39, 0x00, 0xc4, 0x0b, 0xf3, 0xf0, 0xf6, 0x29, 0xaa, 0x4f, 0x9b, 0xd9, 0x52, 0xdb, 0x54, 0x38, 0x4a, 0x95, 0x15, 0xd0, 0x67, 0x7f, 0xdd, 0x02, 0x0b, 0xdd, 0xff, 0x49, 0x74, 0x25, 0x9e, 0xcd, 0x49, 0xd4, 0x52, 0x61, 0x25, 0x2b, 0x71, 0x39, 0xd9, 0xb7, 0x90, 0x5e, 0x2f, 0xc9, 0x2b, 0xbc, 0x9c, 0x13, 0xee, 0x1f, 0xf1, 0x0b, 0x55, 0x2d, 0xf0, 0x24, 0xea, 0xae, 0xbe, 0x3c, 0xfa, 0xc6, 0x7f, 0x11, 0xd6, 0x38, 0xd8, 0x3b, 0x5e, 0xca, 0x26, 0xcf, 0x24, 0xf6, 0xf2, 0xc3, 0x14, 0xd8, 0x51, 0x3d, 0xd9, 0x46, 0x12, 0x3c, 0xe0, 0xcf, 0x8a, 0x23, 0xa0, 0x98, 0xbe, 0x3b, 0x25, 0xa6, 0x2c, 0xa0, 0xd4, 0x8d, 0xe0, 0xa6, 0xd1, 0x08, 0x49, 0xc9, 0xf3, 0x84, 0xa3, 0x0c, 0x6c, 0xb9, 0x48, 0x75, 0x77, 0xe1, 0x3b, 0x93, 0x92, 0xb1, 0xb7, 0xcd, 0x99, 0x16, 0x4a, 0x42, 0x09, 0x8c, 0xd2, 0xef, 0x7f, 0xb5, 0x3b, 0xf5, 0xc8, 0x0a, 0x39, 0x36, 0xdd, 0x54, 0x31, 0x67, 0x1d, 0x8d, 0x21, 0xf1, 0x38, 0x73, 0xdc, 0xf3, 0xb4, 0xc8, 0x36, 0x17, 0x5c, 0x24, 0xd9, 0x8a, 0xcb, 0xcc, 0x93, 0x58, 0xc9, 0x2e, 0x14, 0xd7, 0x6b, 0x43, 0x70, 0x22, 0x43, 0x4d, 0xe8, 0x0a, 0x93, 0xe7, 0x6f, 0xf5, 0xf8, 0x16, 0x7f, 0x3e, 0xb7, 0xe3, 0x7a, 0xa4, 0xb6, 0x58, 0xf8, 0xb5, 0x21, 0x1a, 0x3f, 0xf3, 0x9a, 0x36, 0x2f, 0x3d, 0x9e, 0xcd, 0xc0, 0x55, 0xec, 0x5f, 0xb4, 0x69, 0x65, 0x8c, 0xb2, 0x39, 0xc2, 0x19, 0x3d, 0x6b, 0x06, 0x31, 0x27, 0x13, 0xa6, 0xf1, 0x04, 0x43, 0x3e, 0x3f, 0xa9, 0xd5, 0xc2, 0xd8, 0xc6, 0xed, 0x05, 0x9c, 0xa1, 0x1e, 0x1c, 0x99, 0xec, 0x22, 0x4b, 0x71, 0x26, 0x48, 0xf8, 0x5e, 0x2d, 0xe3, 0xc2, 0x79, 0x6e, 0xeb, 0xce, 0xe4, 0x22, 0xa0, 0xcc, 0xa3, 0xa0, 0xc8, 0x5e, 0x6b, 0xc9, 0x34, 0xaf, 0xbc, 0x21, 0x0e, 0xe1, 0xa5, 0xd1, 0xaa, 0x97, 0x67, 0xe9, 0x54, 0xc3, 0xd3, 0x36, 0xec, 0xca, 0x3f, 0xbc, 0x7a, 0x1a, 0x60, 0x32, 0x81, 0xf6, 0xe4, 0x6d, 0x9f, 0xbb, 0x63, 0x8d, 0xdf, 0xb2, 0x5c, 0x47, 0x23, 0x10, 0x2f, 0x1c, 0xea, 0x0d, 0x60, 0x4e, 0xc9, 0x0d, 0x9c, 0x89, 0xd5, 0x2e, 0x73, 0x37, 0x91, 0xad, 0xb8, 0xd1, 0xa6, 0x00, 0x86, 0x49, 0x35, 0x07, 0xa9, 0xc8, 0xb0, 0xa5, 0x71, 0xf0, 0xbc, 0x0f, 0x6d, 0x86, 0xfe, 0xe9, 0x6d, 0x38, 0x2e, 0x46, 0x28, 0x71, 0xb1, 0xa0, 0xb0, 0xe8, 0x24, 0x7a, 0x8e, 0x85, 0xec, 0x2d, 0x13, 0xed, 0xab, 0xce, 0xf1, 0xa9, 0x2d, 0x9a, 0x26, 0x92, 0x68, 0x52, 0xb9, 0x66, 0x81, 0x5f, 0xe2, 0xd4, 0xb8, 0xb4, 0x52, 0xb1, 0x9e, 0x6d, 0xd6, 0xa2, 0x9a, 0xa9, 0xaa, 0x81, 0xd9, 0x6a, 0x12, 0x53, 0x75, 0xc1, 0x02, 0xb9, 0x2b, 0x42, 0x5c, 0x20, 0x2b, 0x0d, 0x32, 0xbe, 0x4a, 0x3a, 0xfa, 0x3c, 0x3e, 0xb1, 0x92, 0xdc, 0x77, 0xa4, 0x7f, 0x68, 0xb1, 0xa9, 0x08, 0x74, 0xcd, 0x22, 0x8c, 0x02, 0x9e, 0x5c, 0x22, 0x03, 0x9c, 0xbe, 0xee, 0x2e, 0x29, 0x2a, 0x3e, 0x0e, 0x1c, 0x2e, 0x08, 0xd3, 0x1e, 0x34, 0xca, 0x76, 0xda, 0xbc, 0x46, 0xa4, 0x1d, 0x13, 0xd6, 0x0f, 0x91, 0x85, 0xbf, 0xd9, 0x21, 0xe5, 0x5e, 0x1a, 0x10, 0x89, 0x8c, 0x35, 0x90, 0xd7, 0xff, 0xff, 0x82, 0xfa, 0xff, 0xff, 0x04, 0x00, 0x00, 0x00, 0x20, 0x00, 0x00, 0x00, 0x77, 0xff, 0xff, 0xff, 0x94, 0xff, 0xff, 0xff, 0xec, 0xff, 0xff, 0xff, 0xee, 0xff, 0xff, 0xff, 0x4a, 0x00, 0x00, 0x00, 0xff, 0xff, 0xff, 0xff, 0x30, 0x00, 0x00, 0x00, 0x06, 0x00, 0x00, 0x00, 0xae, 0xfa, 0xff, 0xff, 0x04, 0x00, 0x00, 0x00, 0x40, 0x02, 0x00, 0x00, 0x78, 0x96, 0xba, 0xfa, 0x5f, 0xe3, 0xc8, 0x2d, 0xf1, 0xf0, 0xd5, 0x93, 0x29, 0xd5, 0x2a, 0xfb, 0x36, 0x2d, 0x4d, 0x8c, 0xae, 0x26, 0x7f, 0x6c, 0xbc, 0x6f, 0x36, 0x82, 0x54, 0xad, 0xba, 0x2e, 0x2e, 0xa1, 0xf6, 0x2f, 0xcf, 0x13, 0x4d, 0xf3, 0xb5, 0x45, 0x79, 0x5e, 0x30, 0x6f, 0xd6, 0x58, 0xb9, 0xa7, 0x20, 0x62, 0x0e, 0xfe, 0xa7, 0x01, 0x47, 0xde, 0xd3, 0x36, 0x6b, 0x0c, 0x06, 0x68, 0x31, 0xb6, 0x8e, 0xd6, 0x19, 0x8c, 0x6b, 0xcb, 0xbb, 0x39, 0xf2, 0x5b, 0x49, 0x6e, 0xae, 0x71, 0xbb, 0xe7, 0xda, 0xc5, 0x83, 0xcb, 0xe7, 0xff, 0x22, 0x34, 0xd2, 0x11, 0x56, 0x1e, 0x27, 0x60, 0xca, 0x89, 0x15, 0xfe, 0xf1, 0x57, 0x95, 0x81, 0x14, 0x43, 0xc1, 0x31, 0xe3, 0xae, 0x51, 0xc2, 0xcf, 0x5a, 0x69, 0x1d, 0x26, 0x75, 0x21, 0xdb, 0xc5, 0xad, 0xc4, 0xc3, 0xf9, 0x54, 0x4f, 0x61, 0x33, 0xae, 0xce, 0xa6, 0xb8, 0xf9, 0x60, 0x15, 0xab, 0x81, 0x60, 0x13, 0xf6, 0x0f, 0x6b, 0xa7, 0xec, 0xb6, 0xfc, 0x98, 0x9e, 0x23, 0xb0, 0x64, 0x32, 0x24, 0x29, 0xeb, 0x51, 0xe3, 0x56, 0xf4, 0xbc, 0xb7, 0xf2, 0xb5, 0xf9, 0x1a, 0x75, 0xfa, 0xd4, 0xbb, 0xb2, 0xa6, 0x97, 0x6f, 0x55, 0x7f, 0x4a, 0x03, 0x2f, 0xb3, 0xba, 0xba, 0x2c, 0x71, 0x7e, 0x98, 0x4a, 0x1c, 0x1c, 0x08, 0x6d, 0x9a, 0x9c, 0x52, 0x59, 0xb9, 0x23, 0x81, 0xe9, 0x35, 0x64, 0x7d, 0xbd, 0xfb, 0x68, 0x10, 0x96, 0x6d, 0xec, 0x9e, 0xbf, 0xf3, 0x4d, 0xd0, 0x4e, 0x66, 0xf0, 0x41, 0x2f, 0x12, 0x31, 0x09, 0x41, 0xb3, 0xc8, 0x17, 0xed, 0xc6, 0xaf, 0x3a, 0xaa, 0x54, 0x20, 0xfb, 0x0e, 0xd5, 0x57, 0x37, 0xb1, 0x5f, 0xb8, 0x9f, 0x19, 0x29, 0x58, 0xfc, 0x65, 0xc3, 0xc6, 0x13, 0x7f, 0xaa, 0x5e, 0xee, 0xdc, 0xdb, 0xa7, 0x1c, 0x78, 0x42, 0x71, 0xd9, 0xc7, 0x92, 0xeb, 0x3d, 0xed, 0x68, 0xe4, 0x14, 0xe3, 0x6a, 0xc1, 0xd1, 0xff, 0x33, 0xed, 0xda, 0x14, 0xeb, 0x08, 0x1f, 0x25, 0xf8, 0xf1, 0x62, 0xfd, 0x3a, 0x74, 0x96, 0x3e, 0xdd, 0xd9, 0x03, 0x29, 0xf4, 0x8f, 0x03, 0x63, 0xd5, 0x39, 0xa8, 0x6d, 0x42, 0x5b, 0x5b, 0x04, 0xad, 0x0d, 0xa9, 0x43, 0x14, 0x1a, 0x1a, 0xa6, 0x46, 0xb9, 0x91, 0x48, 0x4d, 0x16, 0x32, 0x55, 0xb1, 0x77, 0xc0, 0x95, 0xef, 0xbf, 0xb3, 0x36, 0x36, 0x69, 0xd2, 0xef, 0xd1, 0x41, 0xe0, 0x7f, 0xb4, 0xe3, 0x25, 0xaf, 0xf1, 0xee, 0x3a, 0x37, 0xbb, 0xd5, 0xd9, 0xc6, 0xb1, 0x1f, 0x09, 0x3e, 0x08, 0x7b, 0x73, 0x68, 0xb2, 0x1f, 0x88, 0xff, 0x65, 0x4d, 0x5a, 0xb9, 0x81, 0x59, 0x81, 0x67, 0x1d, 0x8f, 0xad, 0xd9, 0x29, 0xb2, 0x1e, 0xc4, 0xb7, 0xc4, 0xcd, 0x2d, 0xab, 0xaf, 0x68, 0x9e, 0xfb, 0xb9, 0x6e, 0xb6, 0xa9, 0x0d, 0x33, 0x3f, 0xc2, 0x07, 0x33, 0x24, 0x29, 0x33, 0x60, 0x45, 0x04, 0x25, 0x19, 0xa2, 0x77, 0xa3, 0xf3, 0xed, 0x19, 0x6c, 0x2e, 0x30, 0x22, 0xd3, 0x3b, 0x0b, 0x67, 0xa0, 0x54, 0x6d, 0x6d, 0xc8, 0x9b, 0x84, 0x53, 0x9d, 0x76, 0x08, 0x14, 0xe5, 0x25, 0x6c, 0xde, 0x45, 0x01, 0x78, 0x90, 0xf7, 0x6e, 0x67, 0xc4, 0x86, 0x41, 0xb8, 0x69, 0x17, 0x24, 0xf2, 0x99, 0xce, 0xac, 0xbd, 0x56, 0x6f, 0x49, 0x56, 0xa9, 0x98, 0x82, 0xee, 0x6f, 0xd0, 0x34, 0x2b, 0x9e, 0x5c, 0x3a, 0xf2, 0x18, 0x77, 0x2c, 0x61, 0x74, 0x91, 0x81, 0x94, 0xb0, 0x9a, 0x9c, 0xb0, 0x4b, 0x63, 0x5e, 0x6e, 0x89, 0x08, 0x28, 0x14, 0xfb, 0x3a, 0xde, 0x61, 0xaa, 0x9d, 0x2c, 0x36, 0xce, 0x22, 0x51, 0x47, 0x9d, 0x71, 0xc2, 0x58, 0x76, 0x15, 0x55, 0xdd, 0xaa, 0x72, 0x0a, 0x42, 0xda, 0x23, 0xe7, 0xf9, 0x42, 0x2e, 0x1c, 0x91, 0xbd, 0xec, 0x95, 0x57, 0xaf, 0x9e, 0x2c, 0xde, 0x9f, 0x3e, 0x9f, 0x8c, 0x7c, 0xf5, 0xf1, 0x13, 0x51, 0x69, 0xa1, 0xd6, 0x67, 0xc5, 0x4d, 0xd8, 0x23, 0xa9, 0xc3, 0x41, 0x4d, 0x99, 0x2e, 0xdd, 0x9b, 0x3d, 0x7f, 0xa4, 0xa8, 0x89, 0x7e, 0x00, 0x4e, 0x4f, 0x2f, 0x90, 0x03, 0x1e, 0xd6, 0xe4, 0x88, 0xf1, 0x42, 0x5f, 0xbf, 0x0c, 0xda, 0xff, 0xff, 0x10, 0xda, 0xff, 0xff, 0x02, 0xfd, 0xff, 0xff, 0x04, 0x00, 0x00, 0x00, 0x20, 0x00, 0x00, 0x00, 0xaf, 0xff, 0xff, 0xff, 0x39, 0x00, 0x00, 0x00, 0x3c, 0x00, 0x00, 0x00, 0x2f, 0x00, 0x00, 0x00, 0xb9, 0xff, 0xff, 0xff, 0x9b, 0xff, 0xff, 0xff, 0xc5, 0xff, 0xff, 0xff, 0xb1, 0xff, 0xff, 0xff, 0x2e, 0xfd, 0xff, 0xff, 0x04, 0x00, 0x00, 0x00, 0x40, 0x02, 0x00, 0x00, 0xef, 0x27, 0xc3, 0xd2, 0x9d, 0xf9, 0x5e, 0xec, 0x6a, 0xd9, 0x4c, 0x17, 0x3f, 0x83, 0x5d, 0xb7, 0x2e, 0x77, 0x3e, 0x8c, 0x3f, 0x31, 0xa7, 0x69, 0x8e, 0x86, 0x40, 0x24, 0x08, 0x6c, 0x46, 0x57, 0x75, 0x8f, 0x03, 0xab, 0xd0, 0xf4, 0x52, 0x6f, 0x81, 0x42, 0x99, 0xb3, 0xe4, 0xe3, 0xb6, 0x8a, 0x35, 0xd9, 0x2d, 0x99, 0x27, 0x17, 0x9c, 0xd8, 0xad, 0x76, 0x00, 0x6d, 0xe4, 0xfe, 0x8b, 0xe5, 0x64, 0x43, 0x14, 0x52, 0xb9, 0x14, 0x40, 0x10, 0x2e, 0x34, 0x99, 0x30, 0x1a, 0x5e, 0x15, 0x54, 0x34, 0x2d, 0x14, 0x95, 0xdb, 0xdb, 0x47, 0x53, 0x4b, 0xd7, 0x21, 0xd9, 0xc6, 0xec, 0x0b, 0x5a, 0xd2, 0x54, 0x6c, 0x73, 0xcc, 0xf4, 0xd7, 0xfa, 0xa3, 0x21, 0xd7, 0x57, 0xaf, 0x71, 0x0f, 0x0e, 0x11, 0x10, 0xdb, 0x64, 0xf7, 0x5d, 0x87, 0xa9, 0xc5, 0x39, 0x94, 0xe0, 0x1b, 0xdd, 0xc1, 0x7a, 0xe3, 0xff, 0x29, 0xa9, 0x76, 0x5c, 0xca, 0x98, 0x7b, 0x94, 0x6c, 0x3f, 0x7f, 0xf6, 0xc7, 0xf7, 0x74, 0x42, 0x94, 0x9d, 0x43, 0x4c, 0x4c, 0x40, 0x29, 0x39, 0x73, 0x22, 0x1a, 0x5b, 0xbd, 0xb7, 0x26, 0x99, 0xe1, 0xab, 0x8e, 0xfe, 0x3b, 0xe7, 0xd0, 0x6b, 0x7a, 0x15, 0xb2, 0x9e, 0x13, 0x4d, 0xd0, 0x9d, 0x1e, 0xe5, 0xb5, 0x5b, 0x72, 0x50, 0xc1, 0x27, 0xa6, 0x3f, 0xa7, 0xe6, 0xc0, 0x43, 0xca, 0x2e, 0x1c, 0xfe, 0x0d, 0xaf, 0x4d, 0x12, 0x7f, 0x92, 0xd9, 0xeb, 0x47, 0x02, 0xe5, 0xb3, 0x9f, 0x25, 0x0d, 0x8a, 0xed, 0x8b, 0xd5, 0x71, 0x23, 0x6e, 0x12, 0xa6, 0x5c, 0x78, 0x60, 0x5b, 0x20, 0x35, 0x26, 0x45, 0x5b, 0x9b, 0x16, 0x15, 0x5f, 0x71, 0xb3, 0xc6, 0x95, 0xd7, 0x8d, 0xe8, 0x1a, 0x52, 0xb3, 0x1b, 0x71, 0x45, 0xf4, 0x74, 0xc0, 0xb5, 0x62, 0xfe, 0xe8, 0x64, 0x32, 0xcb, 0x4e, 0x77, 0x02, 0xc9, 0x98, 0xa1, 0x0c, 0x7f, 0xca, 0x10, 0x6a, 0x37, 0xf4, 0x7a, 0x25, 0xdc, 0x55, 0x57, 0x05, 0x52, 0x4c, 0x1e, 0xec, 0x3a, 0x37, 0x03, 0x3d, 0xb3, 0xf0, 0xad, 0x02, 0xd8, 0x64, 0xdd, 0x59, 0xb7, 0x8d, 0xc5, 0xa2, 0x97, 0xdf, 0x0c, 0xb3, 0xaa, 0xfb, 0x51, 0x88, 0xaf, 0xfc, 0x22, 0x27, 0x6e, 0xc6, 0x13, 0x9a, 0xef, 0x3e, 0x83, 0x04, 0x8f, 0xc8, 0x8d, 0xbf, 0xf8, 0x59, 0x19, 0x4e, 0x04, 0xa5, 0x72, 0xbf, 0x25, 0x0e, 0x26, 0x75, 0xee, 0x6d, 0x3f, 0x74, 0x18, 0x62, 0x4b, 0x9d, 0x94, 0x57, 0x57, 0x47, 0xd4, 0x9e, 0xd6, 0xaf, 0x0e, 0x8a, 0x3c, 0xc4, 0xd4, 0xe5, 0x1c, 0x7f, 0xdb, 0x98, 0xf8, 0xea, 0x9c, 0xec, 0xc0, 0x4b, 0x06, 0xd6, 0xd5, 0xb1, 0xba, 0x21, 0x3d, 0x8c, 0x89, 0x13, 0x0b, 0xf3, 0x08, 0x92, 0x9b, 0x86, 0x31, 0x2b, 0xd8, 0x5d, 0xd2, 0x24, 0x90, 0x17, 0x9b, 0xfe, 0x81, 0x20, 0xde, 0x8c, 0x16, 0xb3, 0xc0, 0x4c, 0xd1, 0xb9, 0x58, 0x8e, 0xfa, 0x87, 0x11, 0x82, 0xf9, 0x99, 0x3b, 0xd5, 0x95, 0xaf, 0xb9, 0x9c, 0x23, 0xe5, 0x8c, 0xa6, 0xe2, 0x53, 0xf3, 0xf6, 0xf8, 0xcc, 0x91, 0xd3, 0x68, 0x59, 0x29, 0x29, 0x12, 0xbe, 0x05, 0x00, 0x67, 0xf4, 0xc8, 0x21, 0xbc, 0x27, 0x08, 0xe3, 0xf6, 0xc4, 0x51, 0x0e, 0x58, 0xae, 0xb9, 0x64, 0x50, 0xe1, 0x2a, 0x65, 0xd8, 0x30, 0x38, 0x4d, 0x48, 0x93, 0x43, 0x47, 0xef, 0x51, 0xc0, 0x07, 0xa5, 0x81, 0xb5, 0xb6, 0x3e, 0xba, 0xee, 0x39, 0x65, 0x92, 0x2b, 0x20, 0xcd, 0xb9, 0xd3, 0x91, 0x3b, 0xdf, 0xe7, 0xdc, 0x95, 0xd8, 0xd3, 0x95, 0x20, 0x99, 0xd3, 0xa9, 0x26, 0xe7, 0xbc, 0x27, 0x9c, 0xe7, 0x70, 0xfb, 0x44, 0x56, 0x23, 0x1e, 0xeb, 0x5d, 0xab, 0x1f, 0x17, 0xec, 0xa5, 0xd9, 0xf9, 0x59, 0x35, 0xb4, 0x8f, 0xe3, 0xb2, 0x8b, 0x81, 0xcf, 0xc1, 0x65, 0x34, 0x9d, 0x51, 0x27, 0x43, 0xc5, 0x98, 0x3b, 0x6f, 0x85, 0xe1, 0x70, 0x35, 0x5b, 0x1b, 0x68, 0xbe, 0x09, 0x4d, 0xc1, 0xd3, 0x42, 0x50, 0x72, 0x8a, 0x5b, 0xab, 0x64, 0xf5, 0xba, 0x87, 0x6f, 0x97, 0x93, 0x0d, 0xa4, 0x56, 0xbd, 0x55, 0xff, 0x2a, 0xf3, 0x0e, 0xbe, 0xdd, 0x78, 0x3f, 0xc7, 0x59, 0x73, 0xc2, 0x8c, 0xdc, 0xff, 0xff, 0x7e, 0xff, 0xff, 0xff, 0x04, 0x00, 0x00, 0x00, 0x20, 0x00, 0x00, 0x00, 0x00, 0x00, 0x00, 0x00, 0x00, 0x00, 0x00, 0x00, 0xfe, 0xff, 0xff, 0xff, 0x00, 0x00, 0x00, 0x00, 0xff, 0xff, 0xff, 0xff, 0x0c, 0x00, 0x00, 0x00, 0x00, 0x00, 0x00, 0x00, 0x02, 0x00, 0x00, 0x00, 0xaa, 0xff, 0xff, 0xff, 0x04, 0x00, 0x00, 0x00, 0x48, 0x00, 0x00, 0x00, 0xa9, 0x7a, 0xa9, 0x0f, 0xf9, 0xf0, 0x03, 0xe7, 0x7f, 0xf0, 0xd2, 0x90, 0x68, 0xac, 0x10, 0x7f, 0x04, 0x52, 0x7a, 0xa0, 0x85, 0x90, 0x7f, 0xbb, 0xf3, 0x2b, 0x44, 0xdb, 0x3c, 0x2a, 0x49, 0xe4, 0xca, 0xbb, 0x81, 0x43, 0x4d, 0x17, 0x77, 0x3a, 0x81, 0x18, 0x61, 0xa0, 0xa9, 0x18, 0x6a, 0x11, 0x30, 0x06, 0x95, 0x41, 0x7c, 0x7f, 0x6d, 0x3a, 0x82, 0xa8, 0xb0, 0x81, 0xd6, 0x31, 0x82, 0x07, 0x7c, 0x2a, 0x29, 0x81, 0xdd, 0x57, 0x9b, 0xf4, 0x00, 0x00, 0x06, 0x00, 0x08, 0x00, 0x04, 0x00, 0x06, 0x00, 0x00, 0x00, 0x04, 0x00, 0x00, 0x00, 0x08, 0x00, 0x00, 0x00, 0xff, 0xff, 0xff, 0xff, 0x20, 0x03, 0x00, 0x00, 0x2c, 0xdd, 0xff, 0xff, 0x30, 0xdd, 0xff, 0xff, 0x0f, 0x00, 0x00, 0x00, 0x4d, 0x4c, 0x49, 0x52, 0x20, 0x43, 0x6f, 0x6e, 0x76, 0x65, 0x72, 0x74, 0x65, 0x64, 0x2e, 0x00, 0x01, 0x00, 0x00, 0x00, 0x14, 0x00, 0x00, 0x00, 0x00, 0x00, 0x0e, 0x00, 0x18, 0x00, 0x14, 0x00, 0x10, 0x00, 0x0c, 0x00, 0x08, 0x00, 0x04, 0x00, 0x0e, 0x00, 0x00, 0x00, 0x14, 0x00, 0x00, 0x00, 0x1c, 0x00, 0x00, 0x00, 0x28, 0x03, 0x00, 0x00, 0x2c, 0x03, 0x00, 0x00, 0x30, 0x03, 0x00, 0x00, 0x04, 0x00, 0x00, 0x00, 0x6d, 0x61, 0x69, 0x6e, 0x00, 0x00, 0x00, 0x00, 0x0b, 0x00, 0x00, 0x00, 0xc0, 0x02, 0x00, 0x00, 0x6c, 0x02, 0x00, 0x00, 0x18, 0x02, 0x00, 0x00, 0xc4, 0x01, 0x00, 0x00, 0x80, 0x01, 0x00, 0x00, 0x3c, 0x01, 0x00, 0x00, 0xf8, 0x00, 0x00, 0x00, 0xb4, 0x00, 0x00, 0x00, 0x70, 0x00, 0x00, 0x00, 0x48, 0x00, 0x00, 0x00, 0x04, 0x00, 0x00, 0x00, 0x1a, 0xfe, 0xff, 0xff, 0x14, 0x00, 0x00, 0x00, 0x00, 0x00, 0x00, 0x08, 0x10, 0x00, 0x00, 0x00, 0x14, 0x00, 0x00, 0x00, 0x03, 0x00, 0x00, 0x00, 0xcc, 0xdd, 0xff, 0xff, 0x01, 0x00, 0x00, 0x00, 0x1a, 0x00, 0x00, 0x00, 0x03, 0x00, 0x00, 0x00, 0x17, 0x00, 0x00, 0x00, 0x18, 0x00, 0x00, 0x00, 0x19, 0x00, 0x00, 0x00, 0x00, 0x00, 0x0a, 0x00, 0x10, 0x00, 0x0c, 0x00, 0x08, 0x00, 0x04, 0x00, 0x0a, 0x00, 0x00, 0x00, 0x0c, 0x00, 0x00, 0x00, 0x10, 0x00, 0x00, 0x00, 0x02, 0x00, 0x00, 0x00, 0x01, 0x00, 0x00, 0x00, 0x17, 0x00, 0x00, 0x00, 0x02, 0x00, 0x00, 0x00, 0x16, 0x00, 0x00, 0x00, 0x01, 0x00, 0x00, 0x00, 0x7e, 0xfe, 0xff, 0xff, 0x14, 0x00, 0x00, 0x00, 0x00, 0x00, 0x00, 0x05, 0x24, 0x00, 0x00, 0x00, 0x28, 0x00, 0x00, 0x00, 0x01, 0x00, 0x00, 0x00, 0x6e, 0xfe, 0xff, 0xff, 0x02, 0x00, 0x00, 0x00, 0x02, 0x00, 0x00, 0x00, 0x02, 0x00, 0x00, 0x00, 0x02, 0x00, 0x00, 0x00, 0x00, 0x00, 0x00, 0x01, 0x01, 0x00, 0x00, 0x00, 0x16, 0x00, 0x00, 0x00, 0x01, 0x00, 0x00, 0x00, 0x15, 0x00, 0x00, 0x00, 0x1e, 0xfe, 0xff, 0xff, 0x10, 0x00, 0x00, 0x00, 0x00, 0x00, 0x00, 0x01, 0x1c, 0x00, 0x00, 0x00, 0x20, 0x00, 0x00, 0x00, 0x10, 0xfe, 0xff, 0xff, 0x00, 0x00, 0x00, 0x01, 0x01, 0x00, 0x00, 0x00, 0x01, 0x00, 0x00, 0x00, 0x00, 0x00, 0x00, 0x01, 0x01, 0x00, 0x00, 0x00, 0x15, 0x00, 0x00, 0x00, 0x03, 0x00, 0x00, 0x00, 0x12, 0x00, 0x00, 0x00, 0x13, 0x00, 0x00, 0x00, 0x14, 0x00, 0x00, 0x00, 0x5e, 0xfe, 0xff, 0xff, 0x10, 0x00, 0x00, 0x00, 0x00, 0x00, 0x00, 0x01, 0x1c, 0x00, 0x00, 0x00, 0x20, 0x00, 0x00, 0x00, 0x50, 0xfe, 0xff, 0xff, 0x00, 0x00, 0x00, 0x01, 0x01, 0x00, 0x00, 0x00, 0x01, 0x00, 0x00, 0x00, 0x00, 0x00, 0x00, 0x01, 0x01, 0x00, 0x00, 0x00, 0x12, 0x00, 0x00, 0x00, 0x03, 0x00, 0x00, 0x00, 0x0f, 0x00, 0x00, 0x00, 0x10, 0x00, 0x00, 0x00, 0x11, 0x00, 0x00, 0x00, 0x3e, 0xff, 0xff, 0xff, 0x14, 0x00, 0x00, 0x00, 0x00, 0x00, 0x00, 0x05, 0x24, 0x00, 0x00, 0x00, 0x28, 0x00, 0x00, 0x00, 0x01, 0x00, 0x00, 0x00, 0x2e, 0xff, 0xff, 0xff, 0x03, 0x00, 0x00, 0x00, 0x03, 0x00, 0x00, 0x00, 0x03, 0x00, 0x00, 0x00, 0x03, 0x00, 0x00, 0x00, 0x00, 0x00, 0x00, 0x01, 0x01, 0x00, 0x00, 0x00, 0x0f, 0x00, 0x00, 0x00, 0x01, 0x00, 0x00, 0x00, 0x0e, 0x00, 0x00, 0x00, 0xde, 0xfe, 0xff, 0xff, 0x10, 0x00, 0x00, 0x00, 0x00, 0x00, 0x00, 0x01, 0x1c, 0x00, 0x00, 0x00, 0x20, 0x00, 0x00, 0x00, 0xd0, 0xfe, 0xff, 0xff, 0x00, 0x00, 0x00, 0x01, 0x01, 0x00, 0x00, 0x00, 0x01, 0x00, 0x00, 0x00, 0x00, 0x00, 0x00, 0x01, 0x01, 0x00, 0x00, 0x00, 0x0e, 0x00, 0x00, 0x00, 0x03, 0x00, 0x00, 0x00, 0x0b, 0x00, 0x00, 0x00, 0x0c, 0x00, 0x00, 0x00, 0x0d, 0x00, 0x00, 0x00, 0x1e, 0xff, 0xff, 0xff, 0x10, 0x00, 0x00, 0x00, 0x00, 0x00, 0x00, 0x01, 0x1c, 0x00, 0x00, 0x00, 0x20, 0x00, 0x00, 0x00, 0x10, 0xff, 0xff, 0xff, 0x00, 0x00, 0x00, 0x01, 0x01, 0x00, 0x00, 0x00, 0x01, 0x00, 0x00, 0x00, 0x00, 0x00, 0x00, 0x01, 0x01, 0x00, 0x00, 0x00, 0x0b, 0x00, 0x00, 0x00, 0x03, 0x00, 0x00, 0x00, 0x08, 0x00, 0x00, 0x00, 0x09, 0x00, 0x00, 0x00, 0x0a, 0x00, 0x00, 0x00, 0x00, 0x00, 0x0e, 0x00, 0x1a, 0x00, 0x14, 0x00, 0x10, 0x00, 0x0c, 0x00, 0x0b, 0x00, 0x04, 0x00, 0x0e, 0x00, 0x00, 0x00, 0x24, 0x00, 0x00, 0x00, 0x00, 0x00, 0x00, 0x05, 0x34, 0x00, 0x00, 0x00, 0x38, 0x00, 0x00, 0x00, 0x01, 0x00, 0x00, 0x00, 0x00, 0x00, 0x0e, 0x00, 0x18, 0x00, 0x17, 0x00, 0x10, 0x00, 0x0c, 0x00, 0x08, 0x00, 0x04, 0x00, 0x0e, 0x00, 0x00, 0x00, 0x03, 0x00, 0x00, 0x00, 0x03, 0x00, 0x00, 0x00, 0x03, 0x00, 0x00, 0x00, 0x03, 0x00, 0x00, 0x00, 0x00, 0x00, 0x00, 0x01, 0x01, 0x00, 0x00, 0x00, 0x08, 0x00, 0x00, 0x00, 0x01, 0x00, 0x00, 0x00, 0x07, 0x00, 0x00, 0x00, 0xbe, 0xff, 0xff, 0xff, 0x10, 0x00, 0x00, 0x00, 0x00, 0x00, 0x00, 0x01, 0x1c, 0x00, 0x00, 0x00, 0x20, 0x00, 0x00, 0x00, 0xb0, 0xff, 0xff, 0xff, 0x00, 0x00, 0x00, 0x01, 0x01, 0x00, 0x00, 0x00, 0x01, 0x00, 0x00, 0x00, 0x00, 0x00, 0x00, 0x01, 0x01, 0x00, 0x00, 0x00, 0x07, 0x00, 0x00, 0x00, 0x03, 0x00, 0x00, 0x00, 0x04, 0x00, 0x00, 0x00, 0x05, 0x00, 0x00, 0x00, 0x06, 0x00, 0x00, 0x00, 0x00, 0x00, 0x0e, 0x00, 0x14, 0x00, 0x00, 0x00, 0x10, 0x00, 0x0c, 0x00, 0x0b, 0x00, 0x04, 0x00, 0x0e, 0x00, 0x00, 0x00, 0x1c, 0x00, 0x00, 0x00, 0x00, 0x00, 0x00, 0x01, 0x28, 0x00, 0x00, 0x00, 0x2c, 0x00, 0x00, 0x00, 0x0c, 0x00, 0x14, 0x00, 0x13, 0x00, 0x0c, 0x00, 0x08, 0x00, 0x07, 0x00, 0x0c, 0x00, 0x00, 0x00, 0x00, 0x00, 0x00, 0x01, 0x01, 0x00, 0x00, 0x00, 0x01, 0x00, 0x00, 0x00, 0x00, 0x00, 0x00, 0x01, 0x01, 0x00, 0x00, 0x00, 0x04, 0x00, 0x00, 0x00, 0x03, 0x00, 0x00, 0x00, 0x00, 0x00, 0x00, 0x00, 0x02, 0x00, 0x00, 0x00, 0x03, 0x00, 0x00, 0x00, 0x01, 0x00, 0x00, 0x00, 0x1a, 0x00, 0x00, 0x00, 0x01, 0x00, 0x00, 0x00, 0x00, 0x00, 0x00, 0x00, 0x1b, 0x00, 0x00, 0x00, 0xc8, 0x1f, 0x00, 0x00, 0x3c, 0x1f, 0x00, 0x00, 0x7c, 0x1d, 0x00, 0x00, 0xc0, 0x1c, 0x00, 0x00, 0xd4, 0x1a, 0x00, 0x00, 0x20, 0x19, 0x00, 0x00, 0x5c, 0x18, 0x00, 0x00, 0x68, 0x16, 0x00, 0x00, 0xa4, 0x15, 0x00, 0x00, 0xf0, 0x13, 0x00, 0x00, 0x2c, 0x13, 0x00, 0x00, 0x38, 0x11, 0x00, 0x00, 0x84, 0x0f, 0x00, 0x00, 0xc0, 0x0e, 0x00, 0x00, 0xcc, 0x0c, 0x00, 0x00, 0x08, 0x0c, 0x00, 0x00, 0x54, 0x0a, 0x00, 0x00, 0x90, 0x09, 0x00, 0x00, 0x9c, 0x07, 0x00, 0x00, 0xe8, 0x05, 0x00, 0x00, 0x24, 0x05, 0x00, 0x00, 0x88, 0x03, 0x00, 0x00, 0xc4, 0x02, 0x00, 0x00, 0x18, 0x02, 0x00, 0x00, 0xdc, 0x00, 0x00, 0x00, 0x70, 0x00, 0x00, 0x00, 0x04, 0x00, 0x00, 0x00, 0xb8, 0xe0, 0xff, 0xff, 0x18, 0x00, 0x00, 0x00, 0x20, 0x00, 0x00, 0x00, 0x40, 0x00, 0x00, 0x00, 0x1b, 0x00, 0x00, 0x00, 0x00, 0x00, 0x00, 0x09, 0x44, 0x00, 0x00, 0x00, 0x02, 0x00, 0x00, 0x00, 0xff, 0xff, 0xff, 0xff, 0x02, 0x00, 0x00, 0x00, 0x9c, 0xe0, 0xff, 0xff, 0x08, 0x00, 0x00, 0x00, 0x14, 0x00, 0x00, 0x00, 0x01, 0x00, 0x00, 0x00, 0x00, 0x00, 0x00, 0x00, 0x00, 0x00, 0x00, 0x00, 0x00, 0x00, 0x00, 0x00, 0x01, 0x00, 0x00, 0x00, 0x22, 0x3c, 0x3a, 0x3d, 0x08, 0x00, 0x00, 0x00, 0x49, 0x64, 0x65, 0x6e, 0x74, 0x69, 0x74, 0x79, 0x00, 0x00, 0x00, 0x00, 0x02, 0x00, 0x00, 0x00, 0x01, 0x00, 0x00, 0x00, 0x02, 0x00, 0x00, 0x00, 0xa2, 0xe1, 0xff, 0xff, 0x14, 0x00, 0x00, 0x00, 0x34, 0x00, 0x00, 0x00, 0x1a, 0x00, 0x00, 0x00, 0x00, 0x00, 0x00, 0x02, 0x4c, 0x00, 0x00, 0x00, 0xf4, 0xe0, 0xff, 0xff, 0x08, 0x00, 0x00, 0x00, 0x14, 0x00, 0x00, 0x00, 0x01, 0x00, 0x00, 0x00, 0x00, 0x00, 0x00, 0x00, 0x00, 0x00, 0x00, 0x00, 0x00, 0x00, 0x00, 0x00, 0x01, 0x00, 0x00, 0x00, 0x5d, 0x9b, 0x3d, 0x38, 0x1d, 0x00, 0x00, 0x00, 0x73, 0x65, 0x71, 0x75, 0x65, 0x6e, 0x74, 0x69, 0x61, 0x6c, 0x5f, 0x31, 0x2f, 0x71, 0x75, 0x61, 0x6e, 0x74, 0x5f, 0x64, 0x65, 0x6e, 0x73, 0x65, 0x2f, 0x36, 0x37, 0x39, 0x35, 0x00, 0x00, 0x00, 0x01, 0x00, 0x00, 0x00, 0x02, 0x00, 0x00, 0x00, 0x0a, 0xe2, 0xff, 0xff, 0x14, 0x00, 0x00, 0x00, 0x30, 0x00, 0x00, 0x00, 0x19, 0x00, 0x00, 0x00, 0x00, 0x00, 0x00, 0x09, 0x18, 0x01, 0x00, 0x00, 0x5c, 0xe1, 0xff, 0xff, 0x08, 0x00, 0x00, 0x00, 0x10, 0x00, 0x00, 0x00, 0x01, 0x00, 0x00, 0x00, 0x00, 0x00, 0x00, 0x00, 0x00, 0x00, 0x00, 0x00, 0x01, 0x00, 0x00, 0x00, 0xaa, 0xf5, 0x83, 0x3a, 0xed, 0x00, 0x00, 0x00, 0x4d, 0x61, 0x74, 0x4d, 0x75, 0x6c, 0x3b, 0x73, 0x65, 0x71, 0x75, 0x65, 0x6e, 0x74, 0x69, 0x61, 0x6c, 0x5f, 0x31, 0x2f, 0x71, 0x75, 0x61, 0x6e, 0x74, 0x5f, 0x64, 0x65, 0x6e, 0x73, 0x65, 0x2f, 0x53, 0x74, 0x61, 0x74, 0x65, 0x66, 0x75, 0x6c, 0x50, 0x61, 0x72, 0x74, 0x69, 0x74, 0x69, 0x6f, 0x6e, 0x65, 0x64, 0x43, 0x61, 0x6c, 0x6c, 0x2f, 0x53, 0x74, 0x61, 0x74, 0x65, 0x66, 0x75, 0x6c, 0x50, 0x61, 0x72, 0x74, 0x69, 0x74, 0x69, 0x6f, 0x6e, 0x65, 0x64, 0x43, 0x61, 0x6c, 0x6c, 0x2f, 0x4d, 0x61, 0x74, 0x4d, 0x75, 0x6c, 0x3b, 0x4c, 0x61, 0x73, 0x74, 0x56, 0x61, 0x6c, 0x75, 0x65, 0x51, 0x75, 0x61, 0x6e, 0x74, 0x2f, 0x46, 0x61, 0x6b, 0x65, 0x51, 0x75, 0x61, 0x6e, 0x74, 0x57, 0x69, 0x74, 0x68, 0x4d, 0x69, 0x6e, 0x4d, 0x61, 0x78, 0x56, 0x61, 0x72, 0x73, 0x3b, 0x73, 0x65, 0x71, 0x75, 0x65, 0x6e, 0x74, 0x69, 0x61, 0x6c, 0x5f, 0x31, 0x2f, 0x71, 0x75, 0x61, 0x6e, 0x74, 0x5f, 0x64, 0x65, 0x6e, 0x73, 0x65, 0x2f, 0x53, 0x74, 0x61, 0x74, 0x65, 0x66, 0x75, 0x6c, 0x50, 0x61, 0x72, 0x74, 0x69, 0x74, 0x69, 0x6f, 0x6e, 0x65, 0x64, 0x43, 0x61, 0x6c, 0x6c, 0x2f, 0x53, 0x74, 0x61, 0x74, 0x65, 0x66, 0x75, 0x6c, 0x50, 0x61, 0x72, 0x74, 0x69, 0x74, 0x69, 0x6f, 0x6e, 0x65, 0x64, 0x43, 0x61, 0x6c, 0x6c, 0x2f, 0x4c, 0x61, 0x73, 0x74, 0x56, 0x61, 0x6c, 0x75, 0x65, 0x51, 0x75, 0x61, 0x6e, 0x74, 0x2f, 0x46, 0x61, 0x6b, 0x65, 0x51, 0x75, 0x61, 0x6e, 0x74, 0x57, 0x69, 0x74, 0x68, 0x4d, 0x69, 0x6e, 0x4d, 0x61, 0x78, 0x56, 0x61, 0x72, 0x73, 0x00, 0x00, 0x00, 0x02, 0x00, 0x00, 0x00, 0x02, 0x00, 0x00, 0x00, 0x20, 0x03, 0x00, 0x00, 0xc0, 0xe2, 0xff, 0xff, 0x18, 0x00, 0x00, 0x00, 0x20, 0x00, 0x00, 0x00, 0x40, 0x00, 0x00, 0x00, 0x18, 0x00, 0x00, 0x00, 0x00, 0x00, 0x00, 0x09, 0x84, 0x00, 0x00, 0x00, 0x02, 0x00, 0x00, 0x00, 0xff, 0xff, 0xff, 0xff, 0x20, 0x03, 0x00, 0x00, 0xa4, 0xe2, 0xff, 0xff, 0x08, 0x00, 0x00, 0x00, 0x14, 0x00, 0x00, 0x00, 0x01, 0x00, 0x00, 0x00, 0xfe, 0xff, 0xff, 0xff, 0xff, 0xff, 0xff, 0xff, 0x00, 0x00, 0x00, 0x00, 0x01, 0x00, 0x00, 0x00, 0xdf, 0xea, 0x37, 0x3d, 0x4a, 0x00, 0x00, 0x00, 0x52, 0x65, 0x73, 0x68, 0x61, 0x70, 0x65, 0x3b, 0x73, 0x65, 0x71, 0x75, 0x65, 0x6e, 0x74, 0x69, 0x61, 0x6c, 0x5f, 0x31, 0x2f, 0x71, 0x75, 0x61, 0x6e, 0x74, 0x5f, 0x66, 0x6c, 0x61, 0x74, 0x74, 0x65, 0x6e, 0x2f, 0x50, 0x61, 0x72, 0x74, 0x69, 0x74, 0x69, 0x6f, 0x6e, 0x65, 0x64, 0x43, 0x61, 0x6c, 0x6c, 0x2f, 0x50, 0x61, 0x72, 0x74, 0x69, 0x74, 0x69, 0x6f, 0x6e, 0x65, 0x64, 0x43, 0x61, 0x6c, 0x6c, 0x2f, 0x52, 0x65, 0x73, 0x68, 0x61, 0x70, 0x65, 0x00, 0x00, 0x02, 0x00, 0x00, 0x00, 0x01, 0x00, 0x00, 0x00, 0x20, 0x03, 0x00, 0x00, 0x68, 0xe3, 0xff, 0xff, 0x18, 0x00, 0x00, 0x00, 0x28, 0x00, 0x00, 0x00, 0x48, 0x00, 0x00, 0x00, 0x17, 0x00, 0x00, 0x00, 0x00, 0x00, 0x00, 0x09, 0x94, 0x00, 0x00, 0x00, 0x04, 0x00, 0x00, 0x00, 0xff, 0xff, 0xff, 0xff, 0x0a, 0x00, 0x00, 0x00, 0x0a, 0x00, 0x00, 0x00, 0x08, 0x00, 0x00, 0x00, 0x54, 0xe3, 0xff, 0xff, 0x08, 0x00, 0x00, 0x00, 0x14, 0x00, 0x00, 0x00, 0x01, 0x00, 0x00, 0x00, 0xfe, 0xff, 0xff, 0xff, 0xff, 0xff, 0xff, 0xff, 0x00, 0x00, 0x00, 0x00, 0x01, 0x00, 0x00, 0x00, 0xdf, 0xea, 0x37, 0x3d, 0x52, 0x00, 0x00, 0x00, 0x4d, 0x61, 0x78, 0x50, 0x6f, 0x6f, 0x6c, 0x3b, 0x73, 0x65, 0x71, 0x75, 0x65, 0x6e, 0x74, 0x69, 0x61, 0x6c, 0x5f, 0x31, 0x2f, 0x71, 0x75, 0x61, 0x6e, 0x74, 0x5f, 0x6d, 0x61, 0x78, 0x5f, 0x70, 0x6f, 0x6f, 0x6c, 0x69, 0x6e, 0x67, 0x32, 0x64, 0x5f, 0x32, 0x2f, 0x50, 0x61, 0x72, 0x74, 0x69, 0x74, 0x69, 0x6f, 0x6e, 0x65, 0x64, 0x43, 0x61, 0x6c, 0x6c, 0x2f, 0x50, 0x61, 0x72, 0x74, 0x69, 0x74, 0x69, 0x6f, 0x6e, 0x65, 0x64, 0x43, 0x61, 0x6c, 0x6c, 0x2f, 0x4d, 0x61, 0x78, 0x50, 0x6f, 0x6f, 0x6c, 0x00, 0x00, 0x04, 0x00, 0x00, 0x00, 0x01, 0x00, 0x00, 0x00, 0x0a, 0x00, 0x00, 0x00, 0x0a, 0x00, 0x00, 0x00, 0x08, 0x00, 0x00, 0x00, 0x28, 0xe4, 0xff, 0xff, 0x18, 0x00, 0x00, 0x00, 0x28, 0x00, 0x00, 0x00, 0x44, 0x00, 0x00, 0x00, 0x16, 0x00, 0x00, 0x00, 0x00, 0x00, 0x00, 0x09, 0x6c, 0x01, 0x00, 0x00, 0x04, 0x00, 0x00, 0x00, 0xff, 0xff, 0xff, 0xff, 0x14, 0x00, 0x00, 0x00, 0x14, 0x00, 0x00, 0x00, 0x08, 0x00, 0x00, 0x00, 0x14, 0xe4, 0xff, 0xff, 0x08, 0x00, 0x00, 0x00, 0x10, 0x00, 0x00, 0x00, 0x01, 0x00, 0x00, 0x00, 0xfe, 0xff, 0xff, 0xff, 0xff, 0xff, 0xff, 0xff, 0x01, 0x00, 0x00, 0x00, 0xdf, 0xea, 0x37, 0x3d, 0x2c, 0x01, 0x00, 0x00, 0x52, 0x65, 0x6c, 0x75, 0x3b, 0x73, 0x65, 0x71, 0x75, 0x65, 0x6e, 0x74, 0x69, 0x61, 0x6c, 0x5f, 0x31, 0x2f, 0x71, 0x75, 0x61, 0x6e, 0x74, 0x5f, 0x63, 0x6f, 0x6e, 0x76, 0x32, 0x64, 0x5f, 0x35, 0x2f, 0x53, 0x74, 0x61, 0x74, 0x65, 0x66, 0x75, 0x6c, 0x50, 0x61, 0x72, 0x74, 0x69, 0x74, 0x69, 0x6f, 0x6e, 0x65, 0x64, 0x43, 0x61, 0x6c, 0x6c, 0x2f, 0x53, 0x74, 0x61, 0x74, 0x65, 0x66, 0x75, 0x6c, 0x50, 0x61, 0x72, 0x74, 0x69, 0x74, 0x69, 0x6f, 0x6e, 0x65, 0x64, 0x43, 0x61, 0x6c, 0x6c, 0x2f, 0x52, 0x65, 0x6c, 0x75, 0x3b, 0x42, 0x69, 0x61, 0x73, 0x41, 0x64, 0x64, 0x3b, 0x73, 0x65, 0x71, 0x75, 0x65, 0x6e, 0x74, 0x69, 0x61, 0x6c, 0x5f, 0x31, 0x2f, 0x71, 0x75, 0x61, 0x6e, 0x74, 0x5f, 0x63, 0x6f, 0x6e, 0x76, 0x32, 0x64, 0x5f, 0x35, 0x2f, 0x53, 0x74, 0x61, 0x74, 0x65, 0x66, 0x75, 0x6c, 0x50, 0x61, 0x72, 0x74, 0x69, 0x74, 0x69, 0x6f, 0x6e, 0x65, 0x64, 0x43, 0x61, 0x6c, 0x6c, 0x2f, 0x53, 0x74, 0x61, 0x74, 0x65, 0x66, 0x75, 0x6c, 0x50, 0x61, 0x72, 0x74, 0x69, 0x74, 0x69, 0x6f, 0x6e, 0x65, 0x64, 0x43, 0x61, 0x6c, 0x6c, 0x2f, 0x42, 0x69, 0x61, 0x73, 0x41, 0x64, 0x64, 0x3b, 0x43, 0x6f, 0x6e, 0x76, 0x32, 0x44, 0x3b, 0x73, 0x65, 0x71, 0x75, 0x65, 0x6e, 0x74, 0x69, 0x61, 0x6c, 0x5f, 0x31, 0x2f, 0x71, 0x75, 0x61, 0x6e, 0x74, 0x5f, 0x63, 0x6f, 0x6e, 0x76, 0x32, 0x64, 0x5f, 0x35, 0x2f, 0x53, 0x74, 0x61, 0x74, 0x65, 0x66, 0x75, 0x6c, 0x50, 0x61, 0x72, 0x74, 0x69, 0x74, 0x69, 0x6f, 0x6e, 0x65, 0x64, 0x43, 0x61, 0x6c, 0x6c, 0x2f, 0x53, 0x74, 0x61, 0x74, 0x65, 0x66, 0x75, 0x6c, 0x50, 0x61, 0x72, 0x74, 0x69, 0x74, 0x69, 0x6f, 0x6e, 0x65, 0x64, 0x43, 0x61, 0x6c, 0x6c, 0x2f, 0x43, 0x6f, 0x6e, 0x76, 0x32, 0x44, 0x3b, 0x73, 0x65, 0x71, 0x75, 0x65, 0x6e, 0x74, 0x69, 0x61, 0x6c, 0x5f, 0x31, 0x2f, 0x71, 0x75, 0x61, 0x6e, 0x74, 0x5f, 0x63, 0x6f, 0x6e, 0x76, 0x32, 0x64, 0x5f, 0x35, 0x2f, 0x36, 0x37, 0x37, 0x39, 0x00, 0x00, 0x00, 0x00, 0x04, 0x00, 0x00, 0x00, 0x01, 0x00, 0x00, 0x00, 0x14, 0x00, 0x00, 0x00, 0x14, 0x00, 0x00, 0x00, 0x08, 0x00, 0x00, 0x00, 0x42, 0xe6, 0xff, 0xff, 0x14, 0x00, 0x00, 0x00, 0x88, 0x00, 0x00, 0x00, 0x15, 0x00, 0x00, 0x00, 0x00, 0x00, 0x00, 0x02, 0xa4, 0x00, 0x00, 0x00, 0x94, 0xe5, 0xff, 0xff, 0x08, 0x00, 0x00, 0x00, 0x4c, 0x00, 0x00, 0x00, 0x08, 0x00, 0x00, 0x00, 0x00, 0x00, 0x00, 0x00, 0x00, 0x00, 0x00, 0x00, 0x00, 0x00, 0x00, 0x00, 0x00, 0x00, 0x00, 0x00, 0x00, 0x00, 0x00, 0x00, 0x00, 0x00, 0x00, 0x00, 0x00, 0x00, 0x00, 0x00, 0x00, 0x00, 0x00, 0x00, 0x00, 0x00, 0x00, 0x00, 0x00, 0x00, 0x00, 0x00, 0x00, 0x00, 0x00, 0x00, 0x00, 0x00, 0x00, 0x00, 0x00, 0x00, 0x00, 0x00, 0x00, 0x00, 0x00, 0x00, 0x00, 0x00, 0x00, 0x00, 0x00, 0x00, 0x00, 0x00, 0x00, 0x00, 0x00, 0x00, 0x08, 0x00, 0x00, 0x00, 0x64, 0x6b, 0xac, 0x38, 0x40, 0xd0, 0xa1, 0x38, 0x46, 0xf8, 0x9c, 0x38, 0xf3, 0x58, 0x9b, 0x38, 0xf8, 0x91, 0xa6, 0x38, 0x54, 0x74, 0x9a, 0x38, 0xee, 0x48, 0x9e, 0x38, 0x1a, 0x1f, 0xa9, 0x38, 0x20, 0x00, 0x00, 0x00, 0x73, 0x65, 0x71, 0x75, 0x65, 0x6e, 0x74, 0x69, 0x61, 0x6c, 0x5f, 0x31, 0x2f, 0x71, 0x75, 0x61, 0x6e, 0x74, 0x5f, 0x63, 0x6f, 0x6e, 0x76, 0x32, 0x64, 0x5f, 0x35, 0x2f, 0x36, 0x37, 0x37, 0x39, 0x00, 0x00, 0x00, 0x00, 0x01, 0x00, 0x00, 0x00, 0x08, 0x00, 0x00, 0x00, 0x02, 0xe7, 0xff, 0xff, 0x14, 0x00, 0x00, 0x00, 0x88, 0x00, 0x00, 0x00, 0x14, 0x00, 0x00, 0x00, 0x00, 0x00, 0x00, 0x09, 0x88, 0x01, 0x00, 0x00, 0x54, 0xe6, 0xff, 0xff, 0x08, 0x00, 0x00, 0x00, 0x4c, 0x00, 0x00, 0x00, 0x08, 0x00, 0x00, 0x00, 0x00, 0x00, 0x00, 0x00, 0x00, 0x00, 0x00, 0x00, 0x00, 0x00, 0x00, 0x00, 0x00, 0x00, 0x00, 0x00, 0x00, 0x00, 0x00, 0x00, 0x00, 0x00, 0x00, 0x00, 0x00, 0x00, 0x00, 0x00, 0x00, 0x00, 0x00, 0x00, 0x00, 0x00, 0x00, 0x00, 0x00, 0x00, 0x00, 0x00, 0x00, 0x00, 0x00, 0x00, 0x00, 0x00, 0x00, 0x00, 0x00, 0x00, 0x00, 0x00, 0x00, 0x00, 0x00, 0x00, 0x00, 0x00, 0x00, 0x00, 0x00, 0x00, 0x00, 0x00, 0x00, 0x00, 0x00, 0x00, 0x08, 0x00, 0x00, 0x00, 0x6f, 0x0e, 0xef, 0x3a, 0xf1, 0x59, 0xe0, 0x3a, 0xbc, 0xa2, 0xd9, 0x3a, 0xe6, 0x62, 0xd7, 0x3a, 0x4a, 0xf2, 0xe6, 0x3a, 0xec, 0x25, 0xd6, 0x3a, 0x81, 0x75, 0xdb, 0x3a, 0xd8, 0x7b, 0xea, 0x3a, 0x07, 0x01, 0x00, 0x00, 0x43, 0x6f, 0x6e, 0x76, 0x32, 0x44, 0x3b, 0x73, 0x65, 0x71, 0x75, 0x65, 0x6e, 0x74, 0x69, 0x61, 0x6c, 0x5f, 0x31, 0x2f, 0x71, 0x75, 0x61, 0x6e, 0x74, 0x5f, 0x63, 0x6f, 0x6e, 0x76, 0x32, 0x64, 0x5f, 0x35, 0x2f, 0x53, 0x74, 0x61, 0x74, 0x65, 0x66, 0x75, 0x6c, 0x50, 0x61, 0x72, 0x74, 0x69, 0x74, 0x69, 0x6f, 0x6e, 0x65, 0x64, 0x43, 0x61, 0x6c, 0x6c, 0x2f, 0x53, 0x74, 0x61, 0x74, 0x65, 0x66, 0x75, 0x6c, 0x50, 0x61, 0x72, 0x74, 0x69, 0x74, 0x69, 0x6f, 0x6e, 0x65, 0x64, 0x43, 0x61, 0x6c, 0x6c, 0x2f, 0x43, 0x6f, 0x6e, 0x76, 0x32, 0x44, 0x3b, 0x4c, 0x61, 0x73, 0x74, 0x56, 0x61, 0x6c, 0x75, 0x65, 0x51, 0x75, 0x61, 0x6e, 0x74, 0x2f, 0x46, 0x61, 0x6b, 0x65, 0x51, 0x75, 0x61, 0x6e, 0x74, 0x57, 0x69, 0x74, 0x68, 0x4d, 0x69, 0x6e, 0x4d, 0x61, 0x78, 0x56, 0x61, 0x72, 0x73, 0x50, 0x65, 0x72, 0x43, 0x68, 0x61, 0x6e, 0x6e, 0x65, 0x6c, 0x3b, 0x73, 0x65, 0x71, 0x75, 0x65, 0x6e, 0x74, 0x69, 0x61, 0x6c, 0x5f, 0x31, 0x2f, 0x71, 0x75, 0x61, 0x6e, 0x74, 0x5f, 0x63, 0x6f, 0x6e, 0x76, 0x32, 0x64, 0x5f, 0x35, 0x2f, 0x53, 0x74, 0x61, 0x74, 0x65, 0x66, 0x75, 0x6c, 0x50, 0x61, 0x72, 0x74, 0x69, 0x74, 0x69, 0x6f, 0x6e, 0x65, 0x64, 0x43, 0x61, 0x6c, 0x6c, 0x2f, 0x53, 0x74, 0x61, 0x74, 0x65, 0x66, 0x75, 0x6c, 0x50, 0x61, 0x72, 0x74, 0x69, 0x74, 0x69, 0x6f, 0x6e, 0x65, 0x64, 0x43, 0x61, 0x6c, 0x6c, 0x2f, 0x4c, 0x61, 0x73, 0x74, 0x56, 0x61, 0x6c, 0x75, 0x65, 0x51, 0x75, 0x61, 0x6e, 0x74, 0x2f, 0x46, 0x61, 0x6b, 0x65, 0x51, 0x75, 0x61, 0x6e, 0x74, 0x57, 0x69, 0x74, 0x68, 0x4d, 0x69, 0x6e, 0x4d, 0x61, 0x78, 0x56, 0x61, 0x72, 0x73, 0x50, 0x65, 0x72, 0x43, 0x68, 0x61, 0x6e, 0x6e, 0x65, 0x6c, 0x00, 0x04, 0x00, 0x00, 0x00, 0x08, 0x00, 0x00, 0x00, 0x03, 0x00, 0x00, 0x00, 0x03, 0x00, 0x00, 0x00, 0x08, 0x00, 0x00, 0x00, 0x30, 0xe8, 0xff, 0xff, 0x18, 0x00, 0x00, 0x00, 0x28, 0x00, 0x00, 0x00, 0x44, 0x00, 0x00, 0x00, 0x13, 0x00, 0x00, 0x00, 0x00, 0x00, 0x00, 0x09, 0xc4, 0x01, 0x00, 0x00, 0x04, 0x00, 0x00, 0x00, 0xff, 0xff, 0xff, 0xff, 0x16, 0x00, 0x00, 0x00, 0x16, 0x00, 0x00, 0x00, 0x08, 0x00, 0x00, 0x00, 0x1c, 0xe8, 0xff, 0xff, 0x08, 0x00, 0x00, 0x00, 0x10, 0x00, 0x00, 0x00, 0x01, 0x00, 0x00, 0x00, 0xfd, 0xff, 0xff, 0xff, 0xff, 0xff, 0xff, 0xff, 0x01, 0x00, 0x00, 0x00, 0xdd, 0xa3, 0x38, 0x3d, 0x86, 0x01, 0x00, 0x00, 0x52, 0x65, 0x6c, 0x75, 0x3b, 0x73, 0x65, 0x71, 0x75, 0x65, 0x6e, 0x74, 0x69, 0x61, 0x6c, 0x5f, 0x31, 0x2f, 0x71, 0x75, 0x61, 0x6e, 0x74, 0x5f, 0x63, 0x6f, 0x6e, 0x76, 0x32, 0x64, 0x5f, 0x34, 0x2f, 0x53, 0x74, 0x61, 0x74, 0x65, 0x66, 0x75, 0x6c, 0x50, 0x61, 0x72, 0x74, 0x69, 0x74, 0x69, 0x6f, 0x6e, 0x65, 0x64, 0x43, 0x61, 0x6c, 0x6c, 0x2f, 0x53, 0x74, 0x61, 0x74, 0x65, 0x66, 0x75, 0x6c, 0x50, 0x61, 0x72, 0x74, 0x69, 0x74, 0x69, 0x6f, 0x6e, 0x65, 0x64, 0x43, 0x61, 0x6c, 0x6c, 0x2f, 0x52, 0x65, 0x6c, 0x75, 0x3b, 0x42, 0x69, 0x61, 0x73, 0x41, 0x64, 0x64, 0x3b, 0x73, 0x65, 0x71, 0x75, 0x65, 0x6e, 0x74, 0x69, 0x61, 0x6c, 0x5f, 0x31, 0x2f, 0x71, 0x75, 0x61, 0x6e, 0x74, 0x5f, 0x63, 0x6f, 0x6e, 0x76, 0x32, 0x64, 0x5f, 0x34, 0x2f, 0x53, 0x74, 0x61, 0x74, 0x65, 0x66, 0x75, 0x6c, 0x50, 0x61, 0x72, 0x74, 0x69, 0x74, 0x69, 0x6f, 0x6e, 0x65, 0x64, 0x43, 0x61, 0x6c, 0x6c, 0x2f, 0x53, 0x74, 0x61, 0x74, 0x65, 0x66, 0x75, 0x6c, 0x50, 0x61, 0x72, 0x74, 0x69, 0x74, 0x69, 0x6f, 0x6e, 0x65, 0x64, 0x43, 0x61, 0x6c, 0x6c, 0x2f, 0x42, 0x69, 0x61, 0x73, 0x41, 0x64, 0x64, 0x3b, 0x43, 0x6f, 0x6e, 0x76, 0x32, 0x44, 0x3b, 0x73, 0x65, 0x71, 0x75, 0x65, 0x6e, 0x74, 0x69, 0x61, 0x6c, 0x5f, 0x31, 0x2f, 0x71, 0x75, 0x61, 0x6e, 0x74, 0x5f, 0x63, 0x6f, 0x6e, 0x76, 0x32, 0x64, 0x5f, 0x35, 0x2f, 0x53, 0x74, 0x61, 0x74, 0x65, 0x66, 0x75, 0x6c, 0x50, 0x61, 0x72, 0x74, 0x69, 0x74, 0x69, 0x6f, 0x6e, 0x65, 0x64, 0x43, 0x61, 0x6c, 0x6c, 0x2f, 0x53, 0x74, 0x61, 0x74, 0x65, 0x66, 0x75, 0x6c, 0x50, 0x61, 0x72, 0x74, 0x69, 0x74, 0x69, 0x6f, 0x6e, 0x65, 0x64, 0x43, 0x61, 0x6c, 0x6c, 0x2f, 0x43, 0x6f, 0x6e, 0x76, 0x32, 0x44, 0x3b, 0x43, 0x6f, 0x6e, 0x76, 0x32, 0x44, 0x3b, 0x73, 0x65, 0x71, 0x75, 0x65, 0x6e, 0x74, 0x69, 0x61, 0x6c, 0x5f, 0x31, 0x2f, 0x71, 0x75, 0x61, 0x6e, 0x74, 0x5f, 0x63, 0x6f, 0x6e, 0x76, 0x32, 0x64, 0x5f, 0x34, 0x2f, 0x53, 0x74, 0x61, 0x74, 0x65, 0x66, 0x75, 0x6c, 0x50, 0x61, 0x72, 0x74, 0x69, 0x74, 0x69, 0x6f, 0x6e, 0x65, 0x64, 0x43, 0x61, 0x6c, 0x6c, 0x2f, 0x53, 0x74, 0x61, 0x74, 0x65, 0x66, 0x75, 0x6c, 0x50, 0x61, 0x72, 0x74, 0x69, 0x74, 0x69, 0x6f, 0x6e, 0x65, 0x64, 0x43, 0x61, 0x6c, 0x6c, 0x2f, 0x43, 0x6f, 0x6e, 0x76, 0x32, 0x44, 0x3b, 0x73, 0x65, 0x71, 0x75, 0x65, 0x6e, 0x74, 0x69, 0x61, 0x6c, 0x5f, 0x31, 0x2f, 0x71, 0x75, 0x61, 0x6e, 0x74, 0x5f, 0x63, 0x6f, 0x6e, 0x76, 0x32, 0x64, 0x5f, 0x34, 0x2f, 0x36, 0x37, 0x36, 0x36, 0x00, 0x00, 0x04, 0x00, 0x00, 0x00, 0x01, 0x00, 0x00, 0x00, 0x16, 0x00, 0x00, 0x00, 0x16, 0x00, 0x00, 0x00, 0x08, 0x00, 0x00, 0x00, 0xa2, 0xea, 0xff, 0xff, 0x14, 0x00, 0x00, 0x00, 0x88, 0x00, 0x00, 0x00, 0x12, 0x00, 0x00, 0x00, 0x00, 0x00, 0x00, 0x02, 0xa4, 0x00, 0x00, 0x00, 0xf4, 0xe9, 0xff, 0xff, 0x08, 0x00, 0x00, 0x00, 0x4c, 0x00, 0x00, 0x00, 0x08, 0x00, 0x00, 0x00, 0x00, 0x00, 0x00, 0x00, 0x00, 0x00, 0x00, 0x00, 0x00, 0x00, 0x00, 0x00, 0x00, 0x00, 0x00, 0x00, 0x00, 0x00, 0x00, 0x00, 0x00, 0x00, 0x00, 0x00, 0x00, 0x00, 0x00, 0x00, 0x00, 0x00, 0x00, 0x00, 0x00, 0x00, 0x00, 0x00, 0x00, 0x00, 0x00, 0x00, 0x00, 0x00, 0x00, 0x00, 0x00, 0x00, 0x00, 0x00, 0x00, 0x00, 0x00, 0x00, 0x00, 0x00, 0x00, 0x00, 0x00, 0x00, 0x00, 0x00, 0x00, 0x00, 0x00, 0x00, 0x00, 0x00, 0x00, 0x00, 0x08, 0x00, 0x00, 0x00, 0x5b, 0xda, 0xa8, 0x38, 0x1a, 0x81, 0xa9, 0x38, 0x52, 0x58, 0x99, 0x38, 0xe5, 0x4f, 0xa4, 0x38, 0x80, 0x8a, 0xa1, 0x38, 0x00, 0xc7, 0x9d, 0x38, 0xd4, 0x8e, 0x9e, 0x38, 0x53, 0x81, 0xa3, 0x38, 0x20, 0x00, 0x00, 0x00, 0x73, 0x65, 0x71, 0x75, 0x65, 0x6e, 0x74, 0x69, 0x61, 0x6c, 0x5f, 0x31, 0x2f, 0x71, 0x75, 0x61, 0x6e, 0x74, 0x5f, 0x63, 0x6f, 0x6e, 0x76, 0x32, 0x64, 0x5f, 0x34, 0x2f, 0x36, 0x37, 0x36, 0x36, 0x00, 0x00, 0x00, 0x00, 0x01, 0x00, 0x00, 0x00, 0x08, 0x00, 0x00, 0x00, 0x62, 0xeb, 0xff, 0xff, 0x14, 0x00, 0x00, 0x00, 0x88, 0x00, 0x00, 0x00, 0x11, 0x00, 0x00, 0x00, 0x00, 0x00, 0x00, 0x09, 0x88, 0x01, 0x00, 0x00, 0xb4, 0xea, 0xff, 0xff, 0x08, 0x00, 0x00, 0x00, 0x4c, 0x00, 0x00, 0x00, 0x08, 0x00, 0x00, 0x00, 0x00, 0x00, 0x00, 0x00, 0x00, 0x00, 0x00, 0x00, 0x00, 0x00, 0x00, 0x00, 0x00, 0x00, 0x00, 0x00, 0x00, 0x00, 0x00, 0x00, 0x00, 0x00, 0x00, 0x00, 0x00, 0x00, 0x00, 0x00, 0x00, 0x00, 0x00, 0x00, 0x00, 0x00, 0x00, 0x00, 0x00, 0x00, 0x00, 0x00, 0x00, 0x00, 0x00, 0x00, 0x00, 0x00, 0x00, 0x00, 0x00, 0x00, 0x00, 0x00, 0x00, 0x00, 0x00, 0x00, 0x00, 0x00, 0x00, 0x00, 0x00, 0x00, 0x00, 0x00, 0x00, 0x00, 0x00, 0x00, 0x08, 0x00, 0x00, 0x00, 0xdb, 0x68, 0xe8, 0x3a, 0x5d, 0x4e, 0xe9, 0x3a, 0x7d, 0x10, 0xd3, 0x3a, 0xd8, 0x28, 0xe2, 0x3a, 0x6e, 0x58, 0xde, 0x3a, 0x44, 0x2a, 0xd9, 0x3a, 0x50, 0x3d, 0xda, 0x3a, 0x84, 0x0c, 0xe1, 0x3a, 0x07, 0x01, 0x00, 0x00, 0x43, 0x6f, 0x6e, 0x76, 0x32, 0x44, 0x3b, 0x73, 0x65, 0x71, 0x75, 0x65, 0x6e, 0x74, 0x69, 0x61, 0x6c, 0x5f, 0x31, 0x2f, 0x71, 0x75, 0x61, 0x6e, 0x74, 0x5f, 0x63, 0x6f, 0x6e, 0x76, 0x32, 0x64, 0x5f, 0x34, 0x2f, 0x53, 0x74, 0x61, 0x74, 0x65, 0x66, 0x75, 0x6c, 0x50, 0x61, 0x72, 0x74, 0x69, 0x74, 0x69, 0x6f, 0x6e, 0x65, 0x64, 0x43, 0x61, 0x6c, 0x6c, 0x2f, 0x53, 0x74, 0x61, 0x74, 0x65, 0x66, 0x75, 0x6c, 0x50, 0x61, 0x72, 0x74, 0x69, 0x74, 0x69, 0x6f, 0x6e, 0x65, 0x64, 0x43, 0x61, 0x6c, 0x6c, 0x2f, 0x43, 0x6f, 0x6e, 0x76, 0x32, 0x44, 0x3b, 0x4c, 0x61, 0x73, 0x74, 0x56, 0x61, 0x6c, 0x75, 0x65, 0x51, 0x75, 0x61, 0x6e, 0x74, 0x2f, 0x46, 0x61, 0x6b, 0x65, 0x51, 0x75, 0x61, 0x6e, 0x74, 0x57, 0x69, 0x74, 0x68, 0x4d, 0x69, 0x6e, 0x4d, 0x61, 0x78, 0x56, 0x61, 0x72, 0x73, 0x50, 0x65, 0x72, 0x43, 0x68, 0x61, 0x6e, 0x6e, 0x65, 0x6c, 0x3b, 0x73, 0x65, 0x71, 0x75, 0x65, 0x6e, 0x74, 0x69, 0x61, 0x6c, 0x5f, 0x31, 0x2f, 0x71, 0x75, 0x61, 0x6e, 0x74, 0x5f, 0x63, 0x6f, 0x6e, 0x76, 0x32, 0x64, 0x5f, 0x34, 0x2f, 0x53, 0x74, 0x61, 0x74, 0x65, 0x66, 0x75, 0x6c, 0x50, 0x61, 0x72, 0x74, 0x69, 0x74, 0x69, 0x6f, 0x6e, 0x65, 0x64, 0x43, 0x61, 0x6c, 0x6c, 0x2f, 0x53, 0x74, 0x61, 0x74, 0x65, 0x66, 0x75, 0x6c, 0x50, 0x61, 0x72, 0x74, 0x69, 0x74, 0x69, 0x6f, 0x6e, 0x65, 0x64, 0x43, 0x61, 0x6c, 0x6c, 0x2f, 0x4c, 0x61, 0x73, 0x74, 0x56, 0x61, 0x6c, 0x75, 0x65, 0x51, 0x75, 0x61, 0x6e, 0x74, 0x2f, 0x46, 0x61, 0x6b, 0x65, 0x51, 0x75, 0x61, 0x6e, 0x74, 0x57, 0x69, 0x74, 0x68, 0x4d, 0x69, 0x6e, 0x4d, 0x61, 0x78, 0x56, 0x61, 0x72, 0x73, 0x50, 0x65, 0x72, 0x43, 0x68, 0x61, 0x6e, 0x6e, 0x65, 0x6c, 0x00, 0x04, 0x00, 0x00, 0x00, 0x08, 0x00, 0x00, 0x00, 0x03, 0x00, 0x00, 0x00, 0x03, 0x00, 0x00, 0x00, 0x08, 0x00, 0x00, 0x00, 0x90, 0xec, 0xff, 0xff, 0x18, 0x00, 0x00, 0x00, 0x28, 0x00, 0x00, 0x00, 0x48, 0x00, 0x00, 0x00, 0x10, 0x00, 0x00, 0x00, 0x00, 0x00, 0x00, 0x09, 0x94, 0x00, 0x00, 0x00, 0x04, 0x00, 0x00, 0x00, 0xff, 0xff, 0xff, 0xff, 0x18, 0x00, 0x00, 0x00, 0x18, 0x00, 0x00, 0x00, 0x08, 0x00, 0x00, 0x00, 0x7c, 0xec, 0xff, 0xff, 0x08, 0x00, 0x00, 0x00, 0x14, 0x00, 0x00, 0x00, 0x01, 0x00, 0x00, 0x00, 0xfc, 0xff, 0xff, 0xff, 0xff, 0xff, 0xff, 0xff, 0x00, 0x00, 0x00, 0x00, 0x01, 0x00, 0x00, 0x00, 0xfc, 0xfd, 0x39, 0x3d, 0x52, 0x00, 0x00, 0x00, 0x4d, 0x61, 0x78, 0x50, 0x6f, 0x6f, 0x6c, 0x3b, 0x73, 0x65, 0x71, 0x75, 0x65, 0x6e, 0x74, 0x69, 0x61, 0x6c, 0x5f, 0x31, 0x2f, 0x71, 0x75, 0x61, 0x6e, 0x74, 0x5f, 0x6d, 0x61, 0x78, 0x5f, 0x70, 0x6f, 0x6f, 0x6c, 0x69, 0x6e, 0x67, 0x32, 0x64, 0x5f, 0x31, 0x2f, 0x50, 0x61, 0x72, 0x74, 0x69, 0x74, 0x69, 0x6f, 0x6e, 0x65, 0x64, 0x43, 0x61, 0x6c, 0x6c, 0x2f, 0x50, 0x61, 0x72, 0x74, 0x69, 0x74, 0x69, 0x6f, 0x6e, 0x65, 0x64, 0x43, 0x61, 0x6c, 0x6c, 0x2f, 0x4d, 0x61, 0x78, 0x50, 0x6f, 0x6f, 0x6c, 0x00, 0x00, 0x04, 0x00, 0x00, 0x00, 0x01, 0x00, 0x00, 0x00, 0x18, 0x00, 0x00, 0x00, 0x18, 0x00, 0x00, 0x00, 0x08, 0x00, 0x00, 0x00, 0x50, 0xed, 0xff, 0xff, 0x18, 0x00, 0x00, 0x00, 0x28, 0x00, 0x00, 0x00, 0x44, 0x00, 0x00, 0x00, 0x0f, 0x00, 0x00, 0x00, 0x00, 0x00, 0x00, 0x09, 0xc4, 0x01, 0x00, 0x00, 0x04, 0x00, 0x00, 0x00, 0xff, 0xff, 0xff, 0xff, 0x4a, 0x00, 0x00, 0x00, 0x4a, 0x00, 0x00, 0x00, 0x08, 0x00, 0x00, 0x00, 0x3c, 0xed, 0xff, 0xff, 0x08, 0x00, 0x00, 0x00, 0x10, 0x00, 0x00, 0x00, 0x01, 0x00, 0x00, 0x00, 0xfc, 0xff, 0xff, 0xff, 0xff, 0xff, 0xff, 0xff, 0x01, 0x00, 0x00, 0x00, 0xfc, 0xfd, 0x39, 0x3d, 0x86, 0x01, 0x00, 0x00, 0x52, 0x65, 0x6c, 0x75, 0x3b, 0x73, 0x65, 0x71, 0x75, 0x65, 0x6e, 0x74, 0x69, 0x61, 0x6c, 0x5f, 0x31, 0x2f, 0x71, 0x75, 0x61, 0x6e, 0x74, 0x5f, 0x63, 0x6f, 0x6e, 0x76, 0x32, 0x64, 0x5f, 0x33, 0x2f, 0x53, 0x74, 0x61, 0x74, 0x65, 0x66, 0x75, 0x6c, 0x50, 0x61, 0x72, 0x74, 0x69, 0x74, 0x69, 0x6f, 0x6e, 0x65, 0x64, 0x43, 0x61, 0x6c, 0x6c, 0x2f, 0x53, 0x74, 0x61, 0x74, 0x65, 0x66, 0x75, 0x6c, 0x50, 0x61, 0x72, 0x74, 0x69, 0x74, 0x69, 0x6f, 0x6e, 0x65, 0x64, 0x43, 0x61, 0x6c, 0x6c, 0x2f, 0x52, 0x65, 0x6c, 0x75, 0x3b, 0x42, 0x69, 0x61, 0x73, 0x41, 0x64, 0x64, 0x3b, 0x73, 0x65, 0x71, 0x75, 0x65, 0x6e, 0x74, 0x69, 0x61, 0x6c, 0x5f, 0x31, 0x2f, 0x71, 0x75, 0x61, 0x6e, 0x74, 0x5f, 0x63, 0x6f, 0x6e, 0x76, 0x32, 0x64, 0x5f, 0x33, 0x2f, 0x53, 0x74, 0x61, 0x74, 0x65, 0x66, 0x75, 0x6c, 0x50, 0x61, 0x72, 0x74, 0x69, 0x74, 0x69, 0x6f, 0x6e, 0x65, 0x64, 0x43, 0x61, 0x6c, 0x6c, 0x2f, 0x53, 0x74, 0x61, 0x74, 0x65, 0x66, 0x75, 0x6c, 0x50, 0x61, 0x72, 0x74, 0x69, 0x74, 0x69, 0x6f, 0x6e, 0x65, 0x64, 0x43, 0x61, 0x6c, 0x6c, 0x2f, 0x42, 0x69, 0x61, 0x73, 0x41, 0x64, 0x64, 0x3b, 0x43, 0x6f, 0x6e, 0x76, 0x32, 0x44, 0x3b, 0x73, 0x65, 0x71, 0x75, 0x65, 0x6e, 0x74, 0x69, 0x61, 0x6c, 0x5f, 0x31, 0x2f, 0x71, 0x75, 0x61, 0x6e, 0x74, 0x5f, 0x63, 0x6f, 0x6e, 0x76, 0x32, 0x64, 0x5f, 0x35, 0x2f, 0x53, 0x74, 0x61, 0x74, 0x65, 0x66, 0x75, 0x6c, 0x50, 0x61, 0x72, 0x74, 0x69, 0x74, 0x69, 0x6f, 0x6e, 0x65, 0x64, 0x43, 0x61, 0x6c, 0x6c, 0x2f, 0x53, 0x74, 0x61, 0x74, 0x65, 0x66, 0x75, 0x6c, 0x50, 0x61, 0x72, 0x74, 0x69, 0x74, 0x69, 0x6f, 0x6e, 0x65, 0x64, 0x43, 0x61, 0x6c, 0x6c, 0x2f, 0x43, 0x6f, 0x6e, 0x76, 0x32, 0x44, 0x3b, 0x43, 0x6f, 0x6e, 0x76, 0x32, 0x44, 0x3b, 0x73, 0x65, 0x71, 0x75, 0x65, 0x6e, 0x74, 0x69, 0x61, 0x6c, 0x5f, 0x31, 0x2f, 0x71, 0x75, 0x61, 0x6e, 0x74, 0x5f, 0x63, 0x6f, 0x6e, 0x76, 0x32, 0x64, 0x5f, 0x33, 0x2f, 0x53, 0x74, 0x61, 0x74, 0x65, 0x66, 0x75, 0x6c, 0x50, 0x61, 0x72, 0x74, 0x69, 0x74, 0x69, 0x6f, 0x6e, 0x65, 0x64, 0x43, 0x61, 0x6c, 0x6c, 0x2f, 0x53, 0x74, 0x61, 0x74, 0x65, 0x66, 0x75, 0x6c, 0x50, 0x61, 0x72, 0x74, 0x69, 0x74, 0x69, 0x6f, 0x6e, 0x65, 0x64, 0x43, 0x61, 0x6c, 0x6c, 0x2f, 0x43, 0x6f, 0x6e, 0x76, 0x32, 0x44, 0x3b, 0x73, 0x65, 0x71, 0x75, 0x65, 0x6e, 0x74, 0x69, 0x61, 0x6c, 0x5f, 0x31, 0x2f, 0x71, 0x75, 0x61, 0x6e, 0x74, 0x5f, 0x63, 0x6f, 0x6e, 0x76, 0x32, 0x64, 0x5f, 0x33, 0x2f, 0x36, 0x37, 0x35, 0x32, 0x00, 0x00, 0x04, 0x00, 0x00, 0x00, 0x01, 0x00, 0x00, 0x00, 0x4a, 0x00, 0x00, 0x00, 0x4a, 0x00, 0x00, 0x00, 0x08, 0x00, 0x00, 0x00, 0xc2, 0xef, 0xff, 0xff, 0x14, 0x00, 0x00, 0x00, 0x88, 0x00, 0x00, 0x00, 0x0e, 0x00, 0x00, 0x00, 0x00, 0x00, 0x00, 0x02, 0xa4, 0x00, 0x00, 0x00, 0x14, 0xef, 0xff, 0xff, 0x08, 0x00, 0x00, 0x00, 0x4c, 0x00, 0x00, 0x00, 0x08, 0x00, 0x00, 0x00, 0x00, 0x00, 0x00, 0x00, 0x00, 0x00, 0x00, 0x00, 0x00, 0x00, 0x00, 0x00, 0x00, 0x00, 0x00, 0x00, 0x00, 0x00, 0x00, 0x00, 0x00, 0x00, 0x00, 0x00, 0x00, 0x00, 0x00, 0x00, 0x00, 0x00, 0x00, 0x00, 0x00, 0x00, 0x00, 0x00, 0x00, 0x00, 0x00, 0x00, 0x00, 0x00, 0x00, 0x00, 0x00, 0x00, 0x00, 0x00, 0x00, 0x00, 0x00, 0x00, 0x00, 0x00, 0x00, 0x00, 0x00, 0x00, 0x00, 0x00, 0x00, 0x00, 0x00, 0x00, 0x00, 0x00, 0x00, 0x00, 0x08, 0x00, 0x00, 0x00, 0x66, 0x51, 0xb1, 0x38, 0xb2, 0x17, 0xb6, 0x38, 0x72, 0x84, 0xa5, 0x38, 0x82, 0x4e, 0x9d, 0x38, 0x11, 0x4a, 0xa3, 0x38, 0x11, 0x43, 0xa2, 0x38, 0xb0, 0x2e, 0xa1, 0x38, 0x8e, 0x80, 0xa0, 0x38, 0x20, 0x00, 0x00, 0x00, 0x73, 0x65, 0x71, 0x75, 0x65, 0x6e, 0x74, 0x69, 0x61, 0x6c, 0x5f, 0x31, 0x2f, 0x71, 0x75, 0x61, 0x6e, 0x74, 0x5f, 0x63, 0x6f, 0x6e, 0x76, 0x32, 0x64, 0x5f, 0x33, 0x2f, 0x36, 0x37, 0x35, 0x32, 0x00, 0x00, 0x00, 0x00, 0x01, 0x00, 0x00, 0x00, 0x08, 0x00, 0x00, 0x00, 0x82, 0xf0, 0xff, 0xff, 0x14, 0x00, 0x00, 0x00, 0x88, 0x00, 0x00, 0x00, 0x0d, 0x00, 0x00, 0x00, 0x00, 0x00, 0x00, 0x09, 0x88, 0x01, 0x00, 0x00, 0xd4, 0xef, 0xff, 0xff, 0x08, 0x00, 0x00, 0x00, 0x4c, 0x00, 0x00, 0x00, 0x08, 0x00, 0x00, 0x00, 0x00, 0x00, 0x00, 0x00, 0x00, 0x00, 0x00, 0x00, 0x00, 0x00, 0x00, 0x00, 0x00, 0x00, 0x00, 0x00, 0x00, 0x00, 0x00, 0x00, 0x00, 0x00, 0x00, 0x00, 0x00, 0x00, 0x00, 0x00, 0x00, 0x00, 0x00, 0x00, 0x00, 0x00, 0x00, 0x00, 0x00, 0x00, 0x00, 0x00, 0x00, 0x00, 0x00, 0x00, 0x00, 0x00, 0x00, 0x00, 0x00, 0x00, 0x00, 0x00, 0x00, 0x00, 0x00, 0x00, 0x00, 0x00, 0x00, 0x00, 0x00, 0x00, 0x00, 0x00, 0x00, 0x00, 0x00, 0x00, 0x08, 0x00, 0x00, 0x00, 0x36, 0x62, 0xf1, 0x3a, 0x21, 0xe2, 0xf7, 0x3a, 0xc8, 0x51, 0xe1, 0x3a, 0x67, 0x24, 0xd6, 0x3a, 0x52, 0x49, 0xde, 0x3a, 0x4c, 0xe3, 0xdc, 0x3a, 0x10, 0x6b, 0xdb, 0x3a, 0x03, 0x7e, 0xda, 0x3a, 0x07, 0x01, 0x00, 0x00, 0x43, 0x6f, 0x6e, 0x76, 0x32, 0x44, 0x3b, 0x73, 0x65, 0x71, 0x75, 0x65, 0x6e, 0x74, 0x69, 0x61, 0x6c, 0x5f, 0x31, 0x2f, 0x71, 0x75, 0x61, 0x6e, 0x74, 0x5f, 0x63, 0x6f, 0x6e, 0x76, 0x32, 0x64, 0x5f, 0x33, 0x2f, 0x53, 0x74, 0x61, 0x74, 0x65, 0x66, 0x75, 0x6c, 0x50, 0x61, 0x72, 0x74, 0x69, 0x74, 0x69, 0x6f, 0x6e, 0x65, 0x64, 0x43, 0x61, 0x6c, 0x6c, 0x2f, 0x53, 0x74, 0x61, 0x74, 0x65, 0x66, 0x75, 0x6c, 0x50, 0x61, 0x72, 0x74, 0x69, 0x74, 0x69, 0x6f, 0x6e, 0x65, 0x64, 0x43, 0x61, 0x6c, 0x6c, 0x2f, 0x43, 0x6f, 0x6e, 0x76, 0x32, 0x44, 0x3b, 0x4c, 0x61, 0x73, 0x74, 0x56, 0x61, 0x6c, 0x75, 0x65, 0x51, 0x75, 0x61, 0x6e, 0x74, 0x2f, 0x46, 0x61, 0x6b, 0x65, 0x51, 0x75, 0x61, 0x6e, 0x74, 0x57, 0x69, 0x74, 0x68, 0x4d, 0x69, 0x6e, 0x4d, 0x61, 0x78, 0x56, 0x61, 0x72, 0x73, 0x50, 0x65, 0x72, 0x43, 0x68, 0x61, 0x6e, 0x6e, 0x65, 0x6c, 0x3b, 0x73, 0x65, 0x71, 0x75, 0x65, 0x6e, 0x74, 0x69, 0x61, 0x6c, 0x5f, 0x31, 0x2f, 0x71, 0x75, 0x61, 0x6e, 0x74, 0x5f, 0x63, 0x6f, 0x6e, 0x76, 0x32, 0x64, 0x5f, 0x33, 0x2f, 0x53, 0x74, 0x61, 0x74, 0x65, 0x66, 0x75, 0x6c, 0x50, 0x61, 0x72, 0x74, 0x69, 0x74, 0x69, 0x6f, 0x6e, 0x65, 0x64, 0x43, 0x61, 0x6c, 0x6c, 0x2f, 0x53, 0x74, 0x61, 0x74, 0x65, 0x66, 0x75, 0x6c, 0x50, 0x61, 0x72, 0x74, 0x69, 0x74, 0x69, 0x6f, 0x6e, 0x65, 0x64, 0x43, 0x61, 0x6c, 0x6c, 0x2f, 0x4c, 0x61, 0x73, 0x74, 0x56, 0x61, 0x6c, 0x75, 0x65, 0x51, 0x75, 0x61, 0x6e, 0x74, 0x2f, 0x46, 0x61, 0x6b, 0x65, 0x51, 0x75, 0x61, 0x6e, 0x74, 0x57, 0x69, 0x74, 0x68, 0x4d, 0x69, 0x6e, 0x4d, 0x61, 0x78, 0x56, 0x61, 0x72, 0x73, 0x50, 0x65, 0x72, 0x43, 0x68, 0x61, 0x6e, 0x6e, 0x65, 0x6c, 0x00, 0x04, 0x00, 0x00, 0x00, 0x08, 0x00, 0x00, 0x00, 0x03, 0x00, 0x00, 0x00, 0x03, 0x00, 0x00, 0x00, 0x08, 0x00, 0x00, 0x00, 0xb0, 0xf1, 0xff, 0xff, 0x18, 0x00, 0x00, 0x00, 0x28, 0x00, 0x00, 0x00, 0x44, 0x00, 0x00, 0x00, 0x0c, 0x00, 0x00, 0x00, 0x00, 0x00, 0x00, 0x09, 0xc4, 0x01, 0x00, 0x00, 0x04, 0x00, 0x00, 0x00, 0xff, 0xff, 0xff, 0xff, 0x4c, 0x00, 0x00, 0x00, 0x4c, 0x00, 0x00, 0x00, 0x08, 0x00, 0x00, 0x00, 0x9c, 0xf1, 0xff, 0xff, 0x08, 0x00, 0x00, 0x00, 0x10, 0x00, 0x00, 0x00, 0x01, 0x00, 0x00, 0x00, 0xfb, 0xff, 0xff, 0xff, 0xff, 0xff, 0xff, 0xff, 0x01, 0x00, 0x00, 0x00, 0x14, 0x0e, 0x3c, 0x3d, 0x86, 0x01, 0x00, 0x00, 0x52, 0x65, 0x6c, 0x75, 0x3b, 0x73, 0x65, 0x71, 0x75, 0x65, 0x6e, 0x74, 0x69, 0x61, 0x6c, 0x5f, 0x31, 0x2f, 0x71, 0x75, 0x61, 0x6e, 0x74, 0x5f, 0x63, 0x6f, 0x6e, 0x76, 0x32, 0x64, 0x5f, 0x32, 0x2f, 0x53, 0x74, 0x61, 0x74, 0x65, 0x66, 0x75, 0x6c, 0x50, 0x61, 0x72, 0x74, 0x69, 0x74, 0x69, 0x6f, 0x6e, 0x65, 0x64, 0x43, 0x61, 0x6c, 0x6c, 0x2f, 0x53, 0x74, 0x61, 0x74, 0x65, 0x66, 0x75, 0x6c, 0x50, 0x61, 0x72, 0x74, 0x69, 0x74, 0x69, 0x6f, 0x6e, 0x65, 0x64, 0x43, 0x61, 0x6c, 0x6c, 0x2f, 0x52, 0x65, 0x6c, 0x75, 0x3b, 0x42, 0x69, 0x61, 0x73, 0x41, 0x64, 0x64, 0x3b, 0x73, 0x65, 0x71, 0x75, 0x65, 0x6e, 0x74, 0x69, 0x61, 0x6c, 0x5f, 0x31, 0x2f, 0x71, 0x75, 0x61, 0x6e, 0x74, 0x5f, 0x63, 0x6f, 0x6e, 0x76, 0x32, 0x64, 0x5f, 0x32, 0x2f, 0x53, 0x74, 0x61, 0x74, 0x65, 0x66, 0x75, 0x6c, 0x50, 0x61, 0x72, 0x74, 0x69, 0x74, 0x69, 0x6f, 0x6e, 0x65, 0x64, 0x43, 0x61, 0x6c, 0x6c, 0x2f, 0x53, 0x74, 0x61, 0x74, 0x65, 0x66, 0x75, 0x6c, 0x50, 0x61, 0x72, 0x74, 0x69, 0x74, 0x69, 0x6f, 0x6e, 0x65, 0x64, 0x43, 0x61, 0x6c, 0x6c, 0x2f, 0x42, 0x69, 0x61, 0x73, 0x41, 0x64, 0x64, 0x3b, 0x43, 0x6f, 0x6e, 0x76, 0x32, 0x44, 0x3b, 0x73, 0x65, 0x71, 0x75, 0x65, 0x6e, 0x74, 0x69, 0x61, 0x6c, 0x5f, 0x31, 0x2f, 0x71, 0x75, 0x61, 0x6e, 0x74, 0x5f, 0x63, 0x6f, 0x6e, 0x76, 0x32, 0x64, 0x5f, 0x35, 0x2f, 0x53, 0x74, 0x61, 0x74, 0x65, 0x66, 0x75, 0x6c, 0x50, 0x61, 0x72, 0x74, 0x69, 0x74, 0x69, 0x6f, 0x6e, 0x65, 0x64, 0x43, 0x61, 0x6c, 0x6c, 0x2f, 0x53, 0x74, 0x61, 0x74, 0x65, 0x66, 0x75, 0x6c, 0x50, 0x61, 0x72, 0x74, 0x69, 0x74, 0x69, 0x6f, 0x6e, 0x65, 0x64, 0x43, 0x61, 0x6c, 0x6c, 0x2f, 0x43, 0x6f, 0x6e, 0x76, 0x32, 0x44, 0x3b, 0x43, 0x6f, 0x6e, 0x76, 0x32, 0x44, 0x3b, 0x73, 0x65, 0x71, 0x75, 0x65, 0x6e, 0x74, 0x69, 0x61, 0x6c, 0x5f, 0x31, 0x2f, 0x71, 0x75, 0x61, 0x6e, 0x74, 0x5f, 0x63, 0x6f, 0x6e, 0x76, 0x32, 0x64, 0x5f, 0x32, 0x2f, 0x53, 0x74, 0x61, 0x74, 0x65, 0x66, 0x75, 0x6c, 0x50, 0x61, 0x72, 0x74, 0x69, 0x74, 0x69, 0x6f, 0x6e, 0x65, 0x64, 0x43, 0x61, 0x6c, 0x6c, 0x2f, 0x53, 0x74, 0x61, 0x74, 0x65, 0x66, 0x75, 0x6c, 0x50, 0x61, 0x72, 0x74, 0x69, 0x74, 0x69, 0x6f, 0x6e, 0x65, 0x64, 0x43, 0x61, 0x6c, 0x6c, 0x2f, 0x43, 0x6f, 0x6e, 0x76, 0x32, 0x44, 0x3b, 0x73, 0x65, 0x71, 0x75, 0x65, 0x6e, 0x74, 0x69, 0x61, 0x6c, 0x5f, 0x31, 0x2f, 0x71, 0x75, 0x61, 0x6e, 0x74, 0x5f, 0x63, 0x6f, 0x6e, 0x76, 0x32, 0x64, 0x5f, 0x32, 0x2f, 0x36, 0x37, 0x33, 0x39, 0x00, 0x00, 0x04, 0x00, 0x00, 0x00, 0x01, 0x00, 0x00, 0x00, 0x4c, 0x00, 0x00, 0x00, 0x4c, 0x00, 0x00, 0x00, 0x08, 0x00, 0x00, 0x00, 0x22, 0xf4, 0xff, 0xff, 0x14, 0x00, 0x00, 0x00, 0x88, 0x00, 0x00, 0x00, 0x0b, 0x00, 0x00, 0x00, 0x00, 0x00, 0x00, 0x02, 0xa4, 0x00, 0x00, 0x00, 0x74, 0xf3, 0xff, 0xff, 0x08, 0x00, 0x00, 0x00, 0x4c, 0x00, 0x00, 0x00, 0x08, 0x00, 0x00, 0x00, 0x00, 0x00, 0x00, 0x00, 0x00, 0x00, 0x00, 0x00, 0x00, 0x00, 0x00, 0x00, 0x00, 0x00, 0x00, 0x00, 0x00, 0x00, 0x00, 0x00, 0x00, 0x00, 0x00, 0x00, 0x00, 0x00, 0x00, 0x00, 0x00, 0x00, 0x00, 0x00, 0x00, 0x00, 0x00, 0x00, 0x00, 0x00, 0x00, 0x00, 0x00, 0x00, 0x00, 0x00, 0x00, 0x00, 0x00, 0x00, 0x00, 0x00, 0x00, 0x00, 0x00, 0x00, 0x00, 0x00, 0x00, 0x00, 0x00, 0x00, 0x00, 0x00, 0x00, 0x00, 0x00, 0x00, 0x00, 0x00, 0x08, 0x00, 0x00, 0x00, 0x22, 0xad, 0xb1, 0x38, 0x45, 0x20, 0xb1, 0x38, 0xae, 0xf4, 0xa9, 0x38, 0x55, 0x47, 0xc6, 0x38, 0x51, 0xcd, 0xb7, 0x38, 0x09, 0x96, 0xa9, 0x38, 0xb0, 0x9b, 0xaf, 0x38, 0x0d, 0x8e, 0xac, 0x38, 0x20, 0x00, 0x00, 0x00, 0x73, 0x65, 0x71, 0x75, 0x65, 0x6e, 0x74, 0x69, 0x61, 0x6c, 0x5f, 0x31, 0x2f, 0x71, 0x75, 0x61, 0x6e, 0x74, 0x5f, 0x63, 0x6f, 0x6e, 0x76, 0x32, 0x64, 0x5f, 0x32, 0x2f, 0x36, 0x37, 0x33, 0x39, 0x00, 0x00, 0x00, 0x00, 0x01, 0x00, 0x00, 0x00, 0x08, 0x00, 0x00, 0x00, 0xe2, 0xf4, 0xff, 0xff, 0x14, 0x00, 0x00, 0x00, 0x88, 0x00, 0x00, 0x00, 0x0a, 0x00, 0x00, 0x00, 0x00, 0x00, 0x00, 0x09, 0x88, 0x01, 0x00, 0x00, 0x34, 0xf4, 0xff, 0xff, 0x08, 0x00, 0x00, 0x00, 0x4c, 0x00, 0x00, 0x00, 0x08, 0x00, 0x00, 0x00, 0x00, 0x00, 0x00, 0x00, 0x00, 0x00, 0x00, 0x00, 0x00, 0x00, 0x00, 0x00, 0x00, 0x00, 0x00, 0x00, 0x00, 0x00, 0x00, 0x00, 0x00, 0x00, 0x00, 0x00, 0x00, 0x00, 0x00, 0x00, 0x00, 0x00, 0x00, 0x00, 0x00, 0x00, 0x00, 0x00, 0x00, 0x00, 0x00, 0x00, 0x00, 0x00, 0x00, 0x00, 0x00, 0x00, 0x00, 0x00, 0x00, 0x00, 0x00, 0x00, 0x00, 0x00, 0x00, 0x00, 0x00, 0x00, 0x00, 0x00, 0x00, 0x00, 0x00, 0x00, 0x00, 0x00, 0x00, 0x00, 0x08, 0x00, 0x00, 0x00, 0x96, 0x65, 0xdb, 0x3a, 0xa6, 0xb7, 0xda, 0x3a, 0x0a, 0xdd, 0xd1, 0x3a, 0x3b, 0xd6, 0xf4, 0x3a, 0x00, 0xf6, 0xe2, 0x3a, 0x2c, 0x68, 0xd1, 0x3a, 0xd3, 0xd7, 0xd8, 0x3a, 0xa5, 0x12, 0xd5, 0x3a, 0x07, 0x01, 0x00, 0x00, 0x43, 0x6f, 0x6e, 0x76, 0x32, 0x44, 0x3b, 0x73, 0x65, 0x71, 0x75, 0x65, 0x6e, 0x74, 0x69, 0x61, 0x6c, 0x5f, 0x31, 0x2f, 0x71, 0x75, 0x61, 0x6e, 0x74, 0x5f, 0x63, 0x6f, 0x6e, 0x76, 0x32, 0x64, 0x5f, 0x32, 0x2f, 0x53, 0x74, 0x61, 0x74, 0x65, 0x66, 0x75, 0x6c, 0x50, 0x61, 0x72, 0x74, 0x69, 0x74, 0x69, 0x6f, 0x6e, 0x65, 0x64, 0x43, 0x61, 0x6c, 0x6c, 0x2f, 0x53, 0x74, 0x61, 0x74, 0x65, 0x66, 0x75, 0x6c, 0x50, 0x61, 0x72, 0x74, 0x69, 0x74, 0x69, 0x6f, 0x6e, 0x65, 0x64, 0x43, 0x61, 0x6c, 0x6c, 0x2f, 0x43, 0x6f, 0x6e, 0x76, 0x32, 0x44, 0x3b, 0x4c, 0x61, 0x73, 0x74, 0x56, 0x61, 0x6c, 0x75, 0x65, 0x51, 0x75, 0x61, 0x6e, 0x74, 0x2f, 0x46, 0x61, 0x6b, 0x65, 0x51, 0x75, 0x61, 0x6e, 0x74, 0x57, 0x69, 0x74, 0x68, 0x4d, 0x69, 0x6e, 0x4d, 0x61, 0x78, 0x56, 0x61, 0x72, 0x73, 0x50, 0x65, 0x72, 0x43, 0x68, 0x61, 0x6e, 0x6e, 0x65, 0x6c, 0x3b, 0x73, 0x65, 0x71, 0x75, 0x65, 0x6e, 0x74, 0x69, 0x61, 0x6c, 0x5f, 0x31, 0x2f, 0x71, 0x75, 0x61, 0x6e, 0x74, 0x5f, 0x63, 0x6f, 0x6e, 0x76, 0x32, 0x64, 0x5f, 0x32, 0x2f, 0x53, 0x74, 0x61, 0x74, 0x65, 0x66, 0x75, 0x6c, 0x50, 0x61, 0x72, 0x74, 0x69, 0x74, 0x69, 0x6f, 0x6e, 0x65, 0x64, 0x43, 0x61, 0x6c, 0x6c, 0x2f, 0x53, 0x74, 0x61, 0x74, 0x65, 0x66, 0x75, 0x6c, 0x50, 0x61, 0x72, 0x74, 0x69, 0x74, 0x69, 0x6f, 0x6e, 0x65, 0x64, 0x43, 0x61, 0x6c, 0x6c, 0x2f, 0x4c, 0x61, 0x73, 0x74, 0x56, 0x61, 0x6c, 0x75, 0x65, 0x51, 0x75, 0x61, 0x6e, 0x74, 0x2f, 0x46, 0x61, 0x6b, 0x65, 0x51, 0x75, 0x61, 0x6e, 0x74, 0x57, 0x69, 0x74, 0x68, 0x4d, 0x69, 0x6e, 0x4d, 0x61, 0x78, 0x56, 0x61, 0x72, 0x73, 0x50, 0x65, 0x72, 0x43, 0x68, 0x61, 0x6e, 0x6e, 0x65, 0x6c, 0x00, 0x04, 0x00, 0x00, 0x00, 0x08, 0x00, 0x00, 0x00, 0x03, 0x00, 0x00, 0x00, 0x03, 0x00, 0x00, 0x00, 0x08, 0x00, 0x00, 0x00, 0x10, 0xf6, 0xff, 0xff, 0x18, 0x00, 0x00, 0x00, 0x28, 0x00, 0x00, 0x00, 0x48, 0x00, 0x00, 0x00, 0x09, 0x00, 0x00, 0x00, 0x00, 0x00, 0x00, 0x09, 0x94, 0x00, 0x00, 0x00, 0x04, 0x00, 0x00, 0x00, 0xff, 0xff, 0xff, 0xff, 0x4e, 0x00, 0x00, 0x00, 0x4e, 0x00, 0x00, 0x00, 0x08, 0x00, 0x00, 0x00, 0xfc, 0xf5, 0xff, 0xff, 0x08, 0x00, 0x00, 0x00, 0x14, 0x00, 0x00, 0x00, 0x01, 0x00, 0x00, 0x00, 0xf0, 0xff, 0xff, 0xff, 0xff, 0xff, 0xff, 0xff, 0x00, 0x00, 0x00, 0x00, 0x01, 0x00, 0x00, 0x00, 0xab, 0x51, 0x4f, 0x3d, 0x50, 0x00, 0x00, 0x00, 0x4d, 0x61, 0x78, 0x50, 0x6f, 0x6f, 0x6c, 0x3b, 0x73, 0x65, 0x71, 0x75, 0x65, 0x6e, 0x74, 0x69, 0x61, 0x6c, 0x5f, 0x31, 0x2f, 0x71, 0x75, 0x61, 0x6e, 0x74, 0x5f, 0x6d, 0x61, 0x78, 0x5f, 0x70, 0x6f, 0x6f, 0x6c, 0x69, 0x6e, 0x67, 0x32, 0x64, 0x2f, 0x50, 0x61, 0x72, 0x74, 0x69, 0x74, 0x69, 0x6f, 0x6e, 0x65, 0x64, 0x43, 0x61, 0x6c, 0x6c, 0x2f, 0x50, 0x61, 0x72, 0x74, 0x69, 0x74, 0x69, 0x6f, 0x6e, 0x65, 0x64, 0x43, 0x61, 0x6c, 0x6c, 0x2f, 0x4d, 0x61, 0x78, 0x50, 0x6f, 0x6f, 0x6c, 0x00, 0x00, 0x00, 0x00, 0x04, 0x00, 0x00, 0x00, 0x01, 0x00, 0x00, 0x00, 0x4e, 0x00, 0x00, 0x00, 0x4e, 0x00, 0x00, 0x00, 0x08, 0x00, 0x00, 0x00, 0xd0, 0xf6, 0xff, 0xff, 0x18, 0x00, 0x00, 0x00, 0x28, 0x00, 0x00, 0x00, 0x44, 0x00, 0x00, 0x00, 0x08, 0x00, 0x00, 0x00, 0x00, 0x00, 0x00, 0x09, 0xc4, 0x01, 0x00, 0x00, 0x04, 0x00, 0x00, 0x00, 0xff, 0xff, 0xff, 0xff, 0xec, 0x00, 0x00, 0x00, 0xec, 0x00, 0x00, 0x00, 0x08, 0x00, 0x00, 0x00, 0xbc, 0xf6, 0xff, 0xff, 0x08, 0x00, 0x00, 0x00, 0x10, 0x00, 0x00, 0x00, 0x01, 0x00, 0x00, 0x00, 0xf0, 0xff, 0xff, 0xff, 0xff, 0xff, 0xff, 0xff, 0x01, 0x00, 0x00, 0x00, 0xab, 0x51, 0x4f, 0x3d, 0x86, 0x01, 0x00, 0x00, 0x52, 0x65, 0x6c, 0x75, 0x3b, 0x73, 0x65, 0x71, 0x75, 0x65, 0x6e, 0x74, 0x69, 0x61, 0x6c, 0x5f, 0x31, 0x2f, 0x71, 0x75, 0x61, 0x6e, 0x74, 0x5f, 0x63, 0x6f, 0x6e, 0x76, 0x32, 0x64, 0x5f, 0x31, 0x2f, 0x53, 0x74, 0x61, 0x74, 0x65, 0x66, 0x75, 0x6c, 0x50, 0x61, 0x72, 0x74, 0x69, 0x74, 0x69, 0x6f, 0x6e, 0x65, 0x64, 0x43, 0x61, 0x6c, 0x6c, 0x2f, 0x53, 0x74, 0x61, 0x74, 0x65, 0x66, 0x75, 0x6c, 0x50, 0x61, 0x72, 0x74, 0x69, 0x74, 0x69, 0x6f, 0x6e, 0x65, 0x64, 0x43, 0x61, 0x6c, 0x6c, 0x2f, 0x52, 0x65, 0x6c, 0x75, 0x3b, 0x42, 0x69, 0x61, 0x73, 0x41, 0x64, 0x64, 0x3b, 0x73, 0x65, 0x71, 0x75, 0x65, 0x6e, 0x74, 0x69, 0x61, 0x6c, 0x5f, 0x31, 0x2f, 0x71, 0x75, 0x61, 0x6e, 0x74, 0x5f, 0x63, 0x6f, 0x6e, 0x76, 0x32, 0x64, 0x5f, 0x31, 0x2f, 0x53, 0x74, 0x61, 0x74, 0x65, 0x66, 0x75, 0x6c, 0x50, 0x61, 0x72, 0x74, 0x69, 0x74, 0x69, 0x6f, 0x6e, 0x65, 0x64, 0x43, 0x61, 0x6c, 0x6c, 0x2f, 0x53, 0x74, 0x61, 0x74, 0x65, 0x66, 0x75, 0x6c, 0x50, 0x61, 0x72, 0x74, 0x69, 0x74, 0x69, 0x6f, 0x6e, 0x65, 0x64, 0x43, 0x61, 0x6c, 0x6c, 0x2f, 0x42, 0x69, 0x61, 0x73, 0x41, 0x64, 0x64, 0x3b, 0x43, 0x6f, 0x6e, 0x76, 0x32, 0x44, 0x3b, 0x73, 0x65, 0x71, 0x75, 0x65, 0x6e, 0x74, 0x69, 0x61, 0x6c, 0x5f, 0x31, 0x2f, 0x71, 0x75, 0x61, 0x6e, 0x74, 0x5f, 0x63, 0x6f, 0x6e, 0x76, 0x32, 0x64, 0x5f, 0x35, 0x2f, 0x53, 0x74, 0x61, 0x74, 0x65, 0x66, 0x75, 0x6c, 0x50, 0x61, 0x72, 0x74, 0x69, 0x74, 0x69, 0x6f, 0x6e, 0x65, 0x64, 0x43, 0x61, 0x6c, 0x6c, 0x2f, 0x53, 0x74, 0x61, 0x74, 0x65, 0x66, 0x75, 0x6c, 0x50, 0x61, 0x72, 0x74, 0x69, 0x74, 0x69, 0x6f, 0x6e, 0x65, 0x64, 0x43, 0x61, 0x6c, 0x6c, 0x2f, 0x43, 0x6f, 0x6e, 0x76, 0x32, 0x44, 0x3b, 0x43, 0x6f, 0x6e, 0x76, 0x32, 0x44, 0x3b, 0x73, 0x65, 0x71, 0x75, 0x65, 0x6e, 0x74, 0x69, 0x61, 0x6c, 0x5f, 0x31, 0x2f, 0x71, 0x75, 0x61, 0x6e, 0x74, 0x5f, 0x63, 0x6f, 0x6e, 0x76, 0x32, 0x64, 0x5f, 0x31, 0x2f, 0x53, 0x74, 0x61, 0x74, 0x65, 0x66, 0x75, 0x6c, 0x50, 0x61, 0x72, 0x74, 0x69, 0x74, 0x69, 0x6f, 0x6e, 0x65, 0x64, 0x43, 0x61, 0x6c, 0x6c, 0x2f, 0x53, 0x74, 0x61, 0x74, 0x65, 0x66, 0x75, 0x6c, 0x50, 0x61, 0x72, 0x74, 0x69, 0x74, 0x69, 0x6f, 0x6e, 0x65, 0x64, 0x43, 0x61, 0x6c, 0x6c, 0x2f, 0x43, 0x6f, 0x6e, 0x76, 0x32, 0x44, 0x3b, 0x73, 0x65, 0x71, 0x75, 0x65, 0x6e, 0x74, 0x69, 0x61, 0x6c, 0x5f, 0x31, 0x2f, 0x71, 0x75, 0x61, 0x6e, 0x74, 0x5f, 0x63, 0x6f, 0x6e, 0x76, 0x32, 0x64, 0x5f, 0x31, 0x2f, 0x36, 0x37, 0x32, 0x35, 0x00, 0x00, 0x04, 0x00, 0x00, 0x00, 0x01, 0x00, 0x00, 0x00, 0xec, 0x00, 0x00, 0x00, 0xec, 0x00, 0x00, 0x00, 0x08, 0x00, 0x00, 0x00, 0x42, 0xf9, 0xff, 0xff, 0x14, 0x00, 0x00, 0x00, 0x88, 0x00, 0x00, 0x00, 0x07, 0x00, 0x00, 0x00, 0x00, 0x00, 0x00, 0x02, 0xa4, 0x00, 0x00, 0x00, 0x94, 0xf8, 0xff, 0xff, 0x08, 0x00, 0x00, 0x00, 0x4c, 0x00, 0x00, 0x00, 0x08, 0x00, 0x00, 0x00, 0x00, 0x00, 0x00, 0x00, 0x00, 0x00, 0x00, 0x00, 0x00, 0x00, 0x00, 0x00, 0x00, 0x00, 0x00, 0x00, 0x00, 0x00, 0x00, 0x00, 0x00, 0x00, 0x00, 0x00, 0x00, 0x00, 0x00, 0x00, 0x00, 0x00, 0x00, 0x00, 0x00, 0x00, 0x00, 0x00, 0x00, 0x00, 0x00, 0x00, 0x00, 0x00, 0x00, 0x00, 0x00, 0x00, 0x00, 0x00, 0x00, 0x00, 0x00, 0x00, 0x00, 0x00, 0x00, 0x00, 0x00, 0x00, 0x00, 0x00, 0x00, 0x00, 0x00, 0x00, 0x00, 0x00, 0x00, 0x00, 0x08, 0x00, 0x00, 0x00, 0xc9, 0x99, 0x15, 0x39, 0x88, 0x24, 0x18, 0x39, 0x48, 0xb8, 0x13, 0x39, 0x22, 0x66, 0x1b, 0x39, 0x3a, 0xa2, 0x14, 0x39, 0xd5, 0x72, 0x17, 0x39, 0x5b, 0xbc, 0x27, 0x39, 0x1d, 0x20, 0x17, 0x39, 0x20, 0x00, 0x00, 0x00, 0x73, 0x65, 0x71, 0x75, 0x65, 0x6e, 0x74, 0x69, 0x61, 0x6c, 0x5f, 0x31, 0x2f, 0x71, 0x75, 0x61, 0x6e, 0x74, 0x5f, 0x63, 0x6f, 0x6e, 0x76, 0x32, 0x64, 0x5f, 0x31, 0x2f, 0x36, 0x37, 0x32, 0x35, 0x00, 0x00, 0x00, 0x00, 0x01, 0x00, 0x00, 0x00, 0x08, 0x00, 0x00, 0x00, 0x02, 0xfa, 0xff, 0xff, 0x14, 0x00, 0x00, 0x00, 0x88, 0x00, 0x00, 0x00, 0x06, 0x00, 0x00, 0x00, 0x00, 0x00, 0x00, 0x09, 0x88, 0x01, 0x00, 0x00, 0x54, 0xf9, 0xff, 0xff, 0x08, 0x00, 0x00, 0x00, 0x4c, 0x00, 0x00, 0x00, 0x08, 0x00, 0x00, 0x00, 0x00, 0x00, 0x00, 0x00, 0x00, 0x00, 0x00, 0x00, 0x00, 0x00, 0x00, 0x00, 0x00, 0x00, 0x00, 0x00, 0x00, 0x00, 0x00, 0x00, 0x00, 0x00, 0x00, 0x00, 0x00, 0x00, 0x00, 0x00, 0x00, 0x00, 0x00, 0x00, 0x00, 0x00, 0x00, 0x00, 0x00, 0x00, 0x00, 0x00, 0x00, 0x00, 0x00, 0x00, 0x00, 0x00, 0x00, 0x00, 0x00, 0x00, 0x00, 0x00, 0x00, 0x00, 0x00, 0x00, 0x00, 0x00, 0x00, 0x00, 0x00, 0x00, 0x00, 0x00, 0x00, 0x00, 0x00, 0x00, 0x08, 0x00, 0x00, 0x00, 0x35, 0x96, 0xd4, 0x3a, 0xf0, 0x32, 0xd8, 0x3a, 0xfa, 0xe9, 0xd1, 0x3a, 0x82, 0xd3, 0xdc, 0x3a, 0x6c, 0x36, 0xd3, 0x3a, 0x6b, 0x36, 0xd7, 0x3a, 0x6e, 0x5b, 0xee, 0x3a, 0xe0, 0xc0, 0xd6, 0x3a, 0x07, 0x01, 0x00, 0x00, 0x43, 0x6f, 0x6e, 0x76, 0x32, 0x44, 0x3b, 0x73, 0x65, 0x71, 0x75, 0x65, 0x6e, 0x74, 0x69, 0x61, 0x6c, 0x5f, 0x31, 0x2f, 0x71, 0x75, 0x61, 0x6e, 0x74, 0x5f, 0x63, 0x6f, 0x6e, 0x76, 0x32, 0x64, 0x5f, 0x31, 0x2f, 0x53, 0x74, 0x61, 0x74, 0x65, 0x66, 0x75, 0x6c, 0x50, 0x61, 0x72, 0x74, 0x69, 0x74, 0x69, 0x6f, 0x6e, 0x65, 0x64, 0x43, 0x61, 0x6c, 0x6c, 0x2f, 0x53, 0x74, 0x61, 0x74, 0x65, 0x66, 0x75, 0x6c, 0x50, 0x61, 0x72, 0x74, 0x69, 0x74, 0x69, 0x6f, 0x6e, 0x65, 0x64, 0x43, 0x61, 0x6c, 0x6c, 0x2f, 0x43, 0x6f, 0x6e, 0x76, 0x32, 0x44, 0x3b, 0x4c, 0x61, 0x73, 0x74, 0x56, 0x61, 0x6c, 0x75, 0x65, 0x51, 0x75, 0x61, 0x6e, 0x74, 0x2f, 0x46, 0x61, 0x6b, 0x65, 0x51, 0x75, 0x61, 0x6e, 0x74, 0x57, 0x69, 0x74, 0x68, 0x4d, 0x69, 0x6e, 0x4d, 0x61, 0x78, 0x56, 0x61, 0x72, 0x73, 0x50, 0x65, 0x72, 0x43, 0x68, 0x61, 0x6e, 0x6e, 0x65, 0x6c, 0x3b, 0x73, 0x65, 0x71, 0x75, 0x65, 0x6e, 0x74, 0x69, 0x61, 0x6c, 0x5f, 0x31, 0x2f, 0x71, 0x75, 0x61, 0x6e, 0x74, 0x5f, 0x63, 0x6f, 0x6e, 0x76, 0x32, 0x64, 0x5f, 0x31, 0x2f, 0x53, 0x74, 0x61, 0x74, 0x65, 0x66, 0x75, 0x6c, 0x50, 0x61, 0x72, 0x74, 0x69, 0x74, 0x69, 0x6f, 0x6e, 0x65, 0x64, 0x43, 0x61, 0x6c, 0x6c, 0x2f, 0x53, 0x74, 0x61, 0x74, 0x65, 0x66, 0x75, 0x6c, 0x50, 0x61, 0x72, 0x74, 0x69, 0x74, 0x69, 0x6f, 0x6e, 0x65, 0x64, 0x43, 0x61, 0x6c, 0x6c, 0x2f, 0x4c, 0x61, 0x73, 0x74, 0x56, 0x61, 0x6c, 0x75, 0x65, 0x51, 0x75, 0x61, 0x6e, 0x74, 0x2f, 0x46, 0x61, 0x6b, 0x65, 0x51, 0x75, 0x61, 0x6e, 0x74, 0x57, 0x69, 0x74, 0x68, 0x4d, 0x69, 0x6e, 0x4d, 0x61, 0x78, 0x56, 0x61, 0x72, 0x73, 0x50, 0x65, 0x72, 0x43, 0x68, 0x61, 0x6e, 0x6e, 0x65, 0x6c, 0x00, 0x04, 0x00, 0x00, 0x00, 0x08, 0x00, 0x00, 0x00, 0x03, 0x00, 0x00, 0x00, 0x03, 0x00, 0x00, 0x00, 0x08, 0x00, 0x00, 0x00, 0x30, 0xfb, 0xff, 0xff, 0x18, 0x00, 0x00, 0x00, 0x28, 0x00, 0x00, 0x00, 0x44, 0x00, 0x00, 0x00, 0x05, 0x00, 0x00, 0x00, 0x00, 0x00, 0x00, 0x09, 0xbc, 0x01, 0x00, 0x00, 0x04, 0x00, 0x00, 0x00, 0xff, 0xff, 0xff, 0xff, 0xee, 0x00, 0x00, 0x00, 0xee, 0x00, 0x00, 0x00, 0x08, 0x00, 0x00, 0x00, 0x1c, 0xfb, 0xff, 0xff, 0x08, 0x00, 0x00, 0x00, 0x10, 0x00, 0x00, 0x00, 0x01, 0x00, 0x00, 0x00, 0xc0, 0xff, 0xff, 0xff, 0xff, 0xff, 0xff, 0xff, 0x01, 0x00, 0x00, 0x00, 0xbe, 0x26, 0xb4, 0x3d, 0x7e, 0x01, 0x00, 0x00, 0x52, 0x65, 0x6c, 0x75, 0x3b, 0x73, 0x65, 0x71, 0x75, 0x65, 0x6e, 0x74, 0x69, 0x61, 0x6c, 0x5f, 0x31, 0x2f, 0x71, 0x75, 0x61, 0x6e, 0x74, 0x5f, 0x63, 0x6f, 0x6e, 0x76, 0x32, 0x64, 0x2f, 0x53, 0x74, 0x61, 0x74, 0x65, 0x66, 0x75, 0x6c, 0x50, 0x61, 0x72, 0x74, 0x69, 0x74, 0x69, 0x6f, 0x6e, 0x65, 0x64, 0x43, 0x61, 0x6c, 0x6c, 0x2f, 0x53, 0x74, 0x61, 0x74, 0x65, 0x66, 0x75, 0x6c, 0x50, 0x61, 0x72, 0x74, 0x69, 0x74, 0x69, 0x6f, 0x6e, 0x65, 0x64, 0x43, 0x61, 0x6c, 0x6c, 0x2f, 0x52, 0x65, 0x6c, 0x75, 0x3b, 0x42, 0x69, 0x61, 0x73, 0x41, 0x64, 0x64, 0x3b, 0x73, 0x65, 0x71, 0x75, 0x65, 0x6e, 0x74, 0x69, 0x61, 0x6c, 0x5f, 0x31, 0x2f, 0x71, 0x75, 0x61, 0x6e, 0x74, 0x5f, 0x63, 0x6f, 0x6e, 0x76, 0x32, 0x64, 0x2f, 0x53, 0x74, 0x61, 0x74, 0x65, 0x66, 0x75, 0x6c, 0x50, 0x61, 0x72, 0x74, 0x69, 0x74, 0x69, 0x6f, 0x6e, 0x65, 0x64, 0x43, 0x61, 0x6c, 0x6c, 0x2f, 0x53, 0x74, 0x61, 0x74, 0x65, 0x66, 0x75, 0x6c, 0x50, 0x61, 0x72, 0x74, 0x69, 0x74, 0x69, 0x6f, 0x6e, 0x65, 0x64, 0x43, 0x61, 0x6c, 0x6c, 0x2f, 0x42, 0x69, 0x61, 0x73, 0x41, 0x64, 0x64, 0x3b, 0x43, 0x6f, 0x6e, 0x76, 0x32, 0x44, 0x3b, 0x73, 0x65, 0x71, 0x75, 0x65, 0x6e, 0x74, 0x69, 0x61, 0x6c, 0x5f, 0x31, 0x2f, 0x71, 0x75, 0x61, 0x6e, 0x74, 0x5f, 0x63, 0x6f, 0x6e, 0x76, 0x32, 0x64, 0x5f, 0x35, 0x2f, 0x53, 0x74, 0x61, 0x74, 0x65, 0x66, 0x75, 0x6c, 0x50, 0x61, 0x72, 0x74, 0x69, 0x74, 0x69, 0x6f, 0x6e, 0x65, 0x64, 0x43, 0x61, 0x6c, 0x6c, 0x2f, 0x53, 0x74, 0x61, 0x74, 0x65, 0x66, 0x75, 0x6c, 0x50, 0x61, 0x72, 0x74, 0x69, 0x74, 0x69, 0x6f, 0x6e, 0x65, 0x64, 0x43, 0x61, 0x6c, 0x6c, 0x2f, 0x43, 0x6f, 0x6e, 0x76, 0x32, 0x44, 0x3b, 0x43, 0x6f, 0x6e, 0x76, 0x32, 0x44, 0x3b, 0x73, 0x65, 0x71, 0x75, 0x65, 0x6e, 0x74, 0x69, 0x61, 0x6c, 0x5f, 0x31, 0x2f, 0x71, 0x75, 0x61, 0x6e, 0x74, 0x5f, 0x63, 0x6f, 0x6e, 0x76, 0x32, 0x64, 0x2f, 0x53, 0x74, 0x61, 0x74, 0x65, 0x66, 0x75, 0x6c, 0x50, 0x61, 0x72, 0x74, 0x69, 0x74, 0x69, 0x6f, 0x6e, 0x65, 0x64, 0x43, 0x61, 0x6c, 0x6c, 0x2f, 0x53, 0x74, 0x61, 0x74, 0x65, 0x66, 0x75, 0x6c, 0x50, 0x61, 0x72, 0x74, 0x69, 0x74, 0x69, 0x6f, 0x6e, 0x65, 0x64, 0x43, 0x61, 0x6c, 0x6c, 0x2f, 0x43, 0x6f, 0x6e, 0x76, 0x32, 0x44, 0x3b, 0x73, 0x65, 0x71, 0x75, 0x65, 0x6e, 0x74, 0x69, 0x61, 0x6c, 0x5f, 0x31, 0x2f, 0x71, 0x75, 0x61, 0x6e, 0x74, 0x5f, 0x63, 0x6f, 0x6e, 0x76, 0x32, 0x64, 0x2f, 0x36, 0x37, 0x31, 0x32, 0x00, 0x00, 0x04, 0x00, 0x00, 0x00, 0x01, 0x00, 0x00, 0x00, 0xee, 0x00, 0x00, 0x00, 0xee, 0x00, 0x00, 0x00, 0x08, 0x00, 0x00, 0x00, 0x9a, 0xfd, 0xff, 0xff, 0x14, 0x00, 0x00, 0x00, 0x84, 0x00, 0x00, 0x00, 0x04, 0x00, 0x00, 0x00, 0x00, 0x00, 0x00, 0x02, 0x9c, 0x00, 0x00, 0x00, 0xec, 0xfc, 0xff, 0xff, 0x08, 0x00, 0x00, 0x00, 0x48, 0x00, 0x00, 0x00, 0x08, 0x00, 0x00, 0x00, 0x00, 0x00, 0x00, 0x00, 0x00, 0x00, 0x00, 0x00, 0x00, 0x00, 0x00, 0x00, 0x00, 0x00, 0x00, 0x00, 0x00, 0x00, 0x00, 0x00, 0x00, 0x00, 0x00, 0x00, 0x00, 0x00, 0x00, 0x00, 0x00, 0x00, 0x00, 0x00, 0x00, 0x00, 0x00, 0x00, 0x00, 0x00, 0x00, 0x00, 0x00, 0x00, 0x00, 0x00, 0x00, 0x00, 0x00, 0x00, 0x00, 0x00, 0x00, 0x00, 0x00, 0x00, 0x00, 0x00, 0x00, 0x00, 0x00, 0x00, 0x00, 0x00, 0x00, 0x00, 0x08, 0x00, 0x00, 0x00, 0xb7, 0x5e, 0x01, 0x3b, 0xb5, 0xde, 0xfe, 0x3a, 0xeb, 0x4e, 0x00, 0x3b, 0xa7, 0xed, 0x04, 0x3b, 0x17, 0x4a, 0xf9, 0x3a, 0x02, 0x18, 0x05, 0x3b, 0x77, 0xc3, 0x0a, 0x3b, 0x82, 0xca, 0xee, 0x3a, 0x1e, 0x00, 0x00, 0x00, 0x73, 0x65, 0x71, 0x75, 0x65, 0x6e, 0x74, 0x69, 0x61, 0x6c, 0x5f, 0x31, 0x2f, 0x71, 0x75, 0x61, 0x6e, 0x74, 0x5f, 0x63, 0x6f, 0x6e, 0x76, 0x32, 0x64, 0x2f, 0x36, 0x37, 0x31, 0x32, 0x00, 0x00, 0x01, 0x00, 0x00, 0x00, 0x08, 0x00, 0x00, 0x00, 0x52, 0xfe, 0xff, 0xff, 0x14, 0x00, 0x00, 0x00, 0x88, 0x00, 0x00, 0x00, 0x03, 0x00, 0x00, 0x00, 0x00, 0x00, 0x00, 0x09, 0x84, 0x01, 0x00, 0x00, 0xa4, 0xfd, 0xff, 0xff, 0x08, 0x00, 0x00, 0x00, 0x4c, 0x00, 0x00, 0x00, 0x08, 0x00, 0x00, 0x00, 0x00, 0x00, 0x00, 0x00, 0x00, 0x00, 0x00, 0x00, 0x00, 0x00, 0x00, 0x00, 0x00, 0x00, 0x00, 0x00, 0x00, 0x00, 0x00, 0x00, 0x00, 0x00, 0x00, 0x00, 0x00, 0x00, 0x00, 0x00, 0x00, 0x00, 0x00, 0x00, 0x00, 0x00, 0x00, 0x00, 0x00, 0x00, 0x00, 0x00, 0x00, 0x00, 0x00, 0x00, 0x00, 0x00, 0x00, 0x00, 0x00, 0x00, 0x00, 0x00, 0x00, 0x00, 0x00, 0x00, 0x00, 0x00, 0x00, 0x00, 0x00, 0x00, 0x00, 0x00, 0x00, 0x00, 0x00, 0x00, 0x08, 0x00, 0x00, 0x00, 0xb7, 0x5e, 0x01, 0x3b, 0xb5, 0xde, 0xfe, 0x3a, 0xeb, 0x4e, 0x00, 0x3b, 0xa7, 0xed, 0x04, 0x3b, 0x17, 0x4a, 0xf9, 0x3a, 0x02, 0x18, 0x05, 0x3b, 0x77, 0xc3, 0x0a, 0x3b, 0x82, 0xca, 0xee, 0x3a, 0x03, 0x01, 0x00, 0x00, 0x43, 0x6f, 0x6e, 0x76, 0x32, 0x44, 0x3b, 0x73, 0x65, 0x71, 0x75, 0x65, 0x6e, 0x74, 0x69, 0x61, 0x6c, 0x5f, 0x31, 0x2f, 0x71, 0x75, 0x61, 0x6e, 0x74, 0x5f, 0x63, 0x6f, 0x6e, 0x76, 0x32, 0x64, 0x2f, 0x53, 0x74, 0x61, 0x74, 0x65, 0x66, 0x75, 0x6c, 0x50, 0x61, 0x72, 0x74, 0x69, 0x74, 0x69, 0x6f, 0x6e, 0x65, 0x64, 0x43, 0x61, 0x6c, 0x6c, 0x2f, 0x53, 0x74, 0x61, 0x74, 0x65, 0x66, 0x75, 0x6c, 0x50, 0x61, 0x72, 0x74, 0x69, 0x74, 0x69, 0x6f, 0x6e, 0x65, 0x64, 0x43, 0x61, 0x6c, 0x6c, 0x2f, 0x43, 0x6f, 0x6e, 0x76, 0x32, 0x44, 0x3b, 0x4c, 0x61, 0x73, 0x74, 0x56, 0x61, 0x6c, 0x75, 0x65, 0x51, 0x75, 0x61, 0x6e, 0x74, 0x2f, 0x46, 0x61, 0x6b, 0x65, 0x51, 0x75, 0x61, 0x6e, 0x74, 0x57, 0x69, 0x74, 0x68, 0x4d, 0x69, 0x6e, 0x4d, 0x61, 0x78, 0x56, 0x61, 0x72, 0x73, 0x50, 0x65, 0x72, 0x43, 0x68, 0x61, 0x6e, 0x6e, 0x65, 0x6c, 0x3b, 0x73, 0x65, 0x71, 0x75, 0x65, 0x6e, 0x74, 0x69, 0x61, 0x6c, 0x5f, 0x31, 0x2f, 0x71, 0x75, 0x61, 0x6e, 0x74, 0x5f, 0x63, 0x6f, 0x6e, 0x76, 0x32, 0x64, 0x2f, 0x53, 0x74, 0x61, 0x74, 0x65, 0x66, 0x75, 0x6c, 0x50, 0x61, 0x72, 0x74, 0x69, 0x74, 0x69, 0x6f, 0x6e, 0x65, 0x64, 0x43, 0x61, 0x6c, 0x6c, 0x2f, 0x53, 0x74, 0x61, 0x74, 0x65, 0x66, 0x75, 0x6c, 0x50, 0x61, 0x72, 0x74, 0x69, 0x74, 0x69, 0x6f, 0x6e, 0x65, 0x64, 0x43, 0x61, 0x6c, 0x6c, 0x2f, 0x4c, 0x61, 0x73, 0x74, 0x56, 0x61, 0x6c, 0x75, 0x65, 0x51, 0x75, 0x61, 0x6e, 0x74, 0x2f, 0x46, 0x61, 0x6b, 0x65, 0x51, 0x75, 0x61, 0x6e, 0x74, 0x57, 0x69, 0x74, 0x68, 0x4d, 0x69, 0x6e, 0x4d, 0x61, 0x78, 0x56, 0x61, 0x72, 0x73, 0x50, 0x65, 0x72, 0x43, 0x68, 0x61, 0x6e, 0x6e, 0x65, 0x6c, 0x00, 0x04, 0x00, 0x00, 0x00, 0x08, 0x00, 0x00, 0x00, 0x03, 0x00, 0x00, 0x00, 0x03, 0x00, 0x00, 0x00, 0x01, 0x00, 0x00, 0x00, 0x00, 0x00, 0x0e, 0x00, 0x18, 0x00, 0x14, 0x00, 0x13, 0x00, 0x0c, 0x00, 0x08, 0x00, 0x04, 0x00, 0x0e, 0x00, 0x00, 0x00, 0x18, 0x00, 0x00, 0x00, 0x18, 0x00, 0x00, 0x00, 0x02, 0x00, 0x00, 0x00, 0x00, 0x00, 0x00, 0x02, 0x58, 0x00, 0x00, 0x00, 0x04, 0x00, 0x04, 0x00, 0x04, 0x00, 0x00, 0x00, 0x46, 0x00, 0x00, 0x00, 0x43, 0x6f, 0x6e, 0x73, 0x74, 0x3b, 0x73, 0x65, 0x71, 0x75, 0x65, 0x6e, 0x74, 0x69, 0x61, 0x6c, 0x5f, 0x31, 0x2f, 0x71, 0x75, 0x61, 0x6e, 0x74, 0x5f, 0x66, 0x6c, 0x61, 0x74, 0x74, 0x65, 0x6e, 0x2f, 0x50, 0x61, 0x72, 0x74, 0x69, 0x74, 0x69, 0x6f, 0x6e, 0x65, 0x64, 0x43, 0x61, 0x6c, 0x6c, 0x2f, 0x50, 0x61, 0x72, 0x74, 0x69, 0x74, 0x69, 0x6f, 0x6e, 0x65, 0x64, 0x43, 0x61, 0x6c, 0x6c, 0x2f, 0x43, 0x6f, 0x6e, 0x73, 0x74, 0x00, 0x00, 0x01, 0x00, 0x00, 0x00, 0x02, 0x00, 0x00, 0x00, 0x14, 0x00, 0x1c, 0x00, 0x18, 0x00, 0x17, 0x00, 0x10, 0x00, 0x0c, 0x00, 0x08, 0x00, 0x00, 0x00, 0x00, 0x00, 0x04, 0x00, 0x14, 0x00, 0x00, 0x00, 0x18, 0x00, 0x00, 0x00, 0x34, 0x00, 0x00, 0x00, 0x50, 0x00, 0x00, 0x00, 0x01, 0x00, 0x00, 0x00, 0x00, 0x00, 0x00, 0x09, 0x50, 0x00, 0x00, 0x00, 0x04, 0x00, 0x00, 0x00, 0xff, 0xff, 0xff, 0xff, 0xf0, 0x00, 0x00, 0x00, 0xf0, 0x00, 0x00, 0x00, 0x01, 0x00, 0x00, 0x00, 0x0c, 0x00, 0x0c, 0x00, 0x00, 0x00, 0x00, 0x00, 0x08, 0x00, 0x04, 0x00, 0x0c, 0x00, 0x00, 0x00, 0x08, 0x00, 0x00, 0x00, 0x10, 0x00, 0x00, 0x00, 0x01, 0x00, 0x00, 0x00, 0x80, 0xff, 0xff, 0xff, 0xff, 0xff, 0xff, 0xff, 0x01, 0x00, 0x00, 0x00, 0x00, 0x00, 0x80, 0x3f, 0x07, 0x00, 0x00, 0x00, 0x69, 0x6e, 0x70, 0x75, 0x74, 0x5f, 0x31, 0x00, 0x04, 0x00, 0x00, 0x00, 0x01, 0x00, 0x00, 0x00, 0xf0, 0x00, 0x00, 0x00, 0xf0, 0x00, 0x00, 0x00, 0x01, 0x00, 0x00, 0x00, 0x04, 0x00, 0x00, 0x00, 0x54, 0x00, 0x00, 0x00, 0x34, 0x00, 0x00, 0x00, 0x24, 0x00, 0x00, 0x00, 0x04, 0x00, 0x00, 0x00, 0xc8, 0xff, 0xff, 0xff, 0x09, 0x00, 0x00, 0x00, 0x04, 0x00, 0x00, 0x00, 0x00, 0x00, 0x00, 0x09, 0x0c, 0x00, 0x0c, 0x00, 0x0b, 0x00, 0x00, 0x00, 0x00, 0x00, 0x04, 0x00, 0x0c, 0x00, 0x00, 0x00, 0x16, 0x00, 0x00, 0x00, 0x00, 0x00, 0x00, 0x16, 0xf0, 0xff, 0xff, 0xff, 0x11, 0x00, 0x00, 0x00, 0x02, 0x00, 0x00, 0x00, 0x00, 0x00, 0x00, 0x11, 0x0c, 0x00, 0x10, 0x00, 0x0f, 0x00, 0x00, 0x00, 0x08, 0x00, 0x04, 0x00, 0x0c, 0x00, 0x00, 0x00, 0x03, 0x00, 0x00, 0x00, 0x03, 0x00, 0x00, 0x00, 0x00, 0x00, 0x00, 0x03};
const int model_data_len = 14512;